{
  "!": 15,
  "!!": 16,
  "!!!": 17,
  "!\"": 18,
  "!)": 20,
  "!\u201d": 19,
  "\"": 51,
  "\")": 56,
  "\"),": 57,
  "\").": 58,
  "\",": 52,
  "\".": 55,
  "\";": 53,
  "\"?": 54,
  "#": 94,
  "$": 89,
  "$1": 272,
  "$2": 746,
  "$3": 1059,
  "%": 95,
  "&": 93,
  "'": 43,
  "''": 45,
  "'.": 44,
  "(": 74,
  "()": 76,
  "(...)": 75,
  "(1": 268,
  "(1)": 269,
  "(1)(": 270,
  "(2)": 743,
  "(2)(": 744,
  "(3)": 1057,
  "(4)": 1200,
  "(5)": 1313,
  "(6)": 1417,
  "(7)": 1508,
  ")": 77,
  "),": 78,
  ").": 81,
  "):": 80,
  ");": 79,
  "*": 90,
  "**": 91,
  "***": 92,
  "+": 96,
  "++": 97,
  "+1": 273,
  "+2": 747,
  "+20": 777,
  "+351": 1163,
  ",": 9,
  ",\"": 10,
  ",000,000": 181,
  ",500": 1346,
  ",9%": 1664,
  ",\u201d": 11,
  "-": 6,
  "--": 7,
  "---": 8,
  "-0": 149,
  "-01": 195,
  "-03": 213,
  "-05": 228,
  "-06": 236,
  "-07": 243,
  "-08": 251,
  "-1": 263,
  "-10": 299,
  "-100": 317,
  "-11": 357,
  "-12": 389,
  "-13": 432,
  "-14": 464,
  "-15": 491,
  "-16": 520,
  "-17": 540,
  "-18": 559,
  "-19": 593,
  "-2": 739,
  "-20": 773,
  "-2018": 911,
  "-21": 932,
  "-22": 944,
  "-23": 960,
  "-24": 975,
  "-25": 993,
  "-27": 1026,
  "-28": 1035,
  "-29": 1045,
  "-3": 1053,
  "-30": 1083,
  "-35": 1149,
  "-4": 1195,
  "-40": 1225,
  "-5": 1309,
  "-50": 1336,
  "-6": 1412,
  "-7": 1505,
  "-750": 1570,
  "-8": 1590,
  "-9": 1663,
  ".": 28,
  ".\"": 38,
  ".'\"": 35,
  ".'\u201d": 36,
  "...": 30,
  "...\"": 32,
  "...+": 34,
  "............": 31,
  "...\u201d": 33,
  ".000": 170,
  ".000.000": 182,
  ".01.20": 205,
  ".11.": 359,
  ".12": 392,
  ".12.": 393,
  ".2%": 742,
  ".3%": 1056,
  ".4%": 1199,
  ".6%": 1416,
  ".6.": 1415,
  ".9%": 1668,
  ".9.7": 1736,
  ".[": 42,
  ".[1": 266,
  ".[18": 562,
  ".[1]": 267,
  ".[2]": 741,
  ".[3]": 1055,
  ".[4]": 1198,
  ".[5]": 1312,
  ".[7]": 1507,
  ".[9]": 1667,
  ".\u00b0": 29,
  ".\u00bb": 41,
  ".\u2019\u201d": 37,
  ".\u201c": 39,
  ".\u201d": 40,
  "/": 27,
  "/00": 163,
  "/01": 196,
  "/01/": 197,
  "/03/": 214,
  "/03/20": 219,
  "/04": 221,
  "/04/": 222,
  "/05/20": 234,
  "/06": 237,
  "/07": 244,
  "/07/2016": 249,
  "/08/": 252,
  "/1": 265,
  "/10": 301,
  "/100": 318,
  "/11": 358,
  "/12": 391,
  "/13": 433,
  "/14": 466,
  "/15": 493,
  "/16": 522,
  "/17": 542,
  "/18": 561,
  "/19": 595,
  "/1999": 734,
  "/2": 740,
  "/20": 775,
  "/2000": 792,
  "/2001": 807,
  "/2002": 812,
  "/2003": 818,
  "/2004": 824,
  "/2005": 830,
  "/2006": 836,
  "/2007": 842,
  "/2008": 848,
  "/2009": 854,
  "/2010": 860,
  "/2011": 866,
  "/2012": 872,
  "/2013": 878,
  "/2014": 884,
  "/2015": 890,
  "/2016": 896,
  "/2017": 903,
  "/2018": 912,
  "/2019": 917,
  "/22": 946,
  "/24": 977,
  "/3": 1054,
  "/4": 1197,
  "/414/": 1255,
  "/5": 1311,
  "/6": 1414,
  "/7": 1506,
  "/8": 1591,
  "/9": 1666,
  "/90": 1687,
  "/92": 1711,
  "/93": 1716,
  "/95": 1723,
  "/96": 1730,
  "/97": 1735,
  "/98": 1740,
  "0": 148,
  "0%": 160,
  "0,": 158,
  "0,0": 166,
  "0,00": 173,
  "0,000": 177,
  "0,5": 232,
  "0-1500": 206,
  "0.0": 167,
  "0.0%": 168,
  "0.00": 174,
  "0.000": 178,
  "0.01": 188,
  "0.1": 201,
  "0.1%": 202,
  "0.10": 204,
  "0.2": 211,
  "0.3": 218,
  "0.4": 226,
  "0.5": 233,
  "0.6": 241,
  "0.7": 248,
  "0.8": 256,
  "0.9": 261,
  "0/": 159,
  "00": 161,
  "00,000": 180,
  "000": 169,
  "000+": 175,
  "0000": 176,
  "00000": 179,
  "001": 185,
  "002": 189,
  "007": 193,
  "00:00:00": 183,
  "01": 194,
  "010": 203,
  "02": 207,
  "03": 212,
  "04": 220,
  "05": 227,
  "06": 235,
  "07": 242,
  "08": 250,
  "09": 257,
  "0\u00b0": 157,
  "1": 262,
  "1%": 297,
  "1)": 295,
  "1,": 292,
  "1,000": 330,
  "1,5": 505,
  "1,7": 549,
  "1-1": 371,
  "1.": 294,
  "1.0": 312,
  "1.00": 322,
  "1.000": 331,
  "1.1": 372,
  "1.2": 409,
  "1.3": 446,
  "1.4": 475,
  "1.5": 506,
  "1.5%": 507,
  "1.6": 531,
  "1.7": 550,
  "1.8": 570,
  "1.8%": 571,
  "1.9": 602,
  "1/": 293,
  "10": 298,
  "10%": 315,
  "10)": 314,
  "10,000": 335,
  "10.": 313,
  "100": 316,
  "100%": 323,
  "1000": 324,
  "101": 339,
  "105": 348,
  "109": 354,
  "11": 356,
  "11)": 373,
  "110": 374,
  "111": 377,
  "12": 388,
  "12)": 410,
  "120": 411,
  "123": 420,
  "125": 424,
  "128": 428,
  "13": 431,
  "13)": 447,
  "130": 448,
  "135": 457,
  "14": 463,
  "14)": 476,
  "14-18": 484,
  "140": 477,
  "14001": 480,
  "14001,": 482,
  "15": 490,
  "15)": 508,
  "150": 509,
  "16": 519,
  "16)": 532,
  "160": 533,
  "16:19": 536,
  "17": 539,
  "17)": 551,
  "170": 552,
  "179": 557,
  "18": 558,
  "180": 572,
  "19": 592,
  "1979": 687,
  "1980": 689,
  "1984": 695,
  "1986": 698,
  "1987": 700,
  "1989": 703,
  "1990": 706,
  "1991": 709,
  "1992": 712,
  "1993": 714,
  "1994": 716,
  "1995": 719,
  "1996": 722,
  "1997": 726,
  "1998": 730,
  "1999": 733,
  "1]": 296,
  "1\u00b0": 291,
  "2": 738,
  "2%": 770,
  "2%)": 771,
  "2)": 766,
  "2),": 767,
  "2).": 768,
  "2,": 763,
  "2,000": 799,
  "2,5": 1003,
  "2-": 762,
  "2.": 765,
  "2.0": 785,
  "2.00": 790,
  "2.000": 800,
  "2.1": 939,
  "2.2": 953,
  "2.3": 970,
  "2.4": 985,
  "2.5": 1004,
  "2.5%": 1005,
  "2.6": 1022,
  "2.7": 1031,
  "2.8": 1041,
  "2.9": 1050,
  "2/": 764,
  "20": 772,
  "20)": 786,
  "20,000": 803,
  "200": 787,
  "2000": 791,
  "2001": 806,
  "2002": 811,
  "2003": 817,
  "2004": 823,
  "2005": 829,
  "2006": 835,
  "2007": 841,
  "2008": 847,
  "2009": 853,
  "2010": 859,
  "2011": 865,
  "2012": 871,
  "2013": 877,
  "2014": 883,
  "2015": 889,
  "2016": 895,
  "2017": 902,
  "2018": 910,
  "2019": 916,
  "2020": 922,
  "21": 931,
  "21)": 940,
  "210": 941,
  "22": 943,
  "22)": 954,
  "220": 955,
  "23": 959,
  "23)": 971,
  "235": 973,
  "24": 974,
  "24)": 986,
  "240": 987,
  "247": 990,
  "25": 992,
  "250": 1006,
  "26": 1016,
  "26)": 1023,
  "264": 1024,
  "27": 1025,
  "27)": 1032,
  "28": 1034,
  "28)": 1042,
  "29": 1044,
  "29)": 1051,
  "2]": 769,
  "2\u00b0": 761,
  "3": 1052,
  "3%": 1080,
  "3%)": 1081,
  "3)": 1077,
  "3).": 1078,
  "3,": 1074,
  "3,000": 1103,
  "3,3": 1137,
  "3,4": 1146,
  "3,5": 1156,
  "3,7": 1177,
  "3,9": 1191,
  "3.": 1076,
  "3.0": 1092,
  "3.000": 1104,
  "3.1": 1118,
  "3.2": 1127,
  "3.3": 1138,
  "3.4": 1147,
  "3.5": 1157,
  "3.5%": 1158,
  "3.6": 1168,
  "3.7": 1178,
  "3.8": 1184,
  "3.9": 1192,
  "3/": 1075,
  "30": 1082,
  "30%": 1093,
  "30,000": 1107,
  "300": 1094,
  "300+": 1098,
  "3000": 1099,
  "31": 1111,
  "31)": 1119,
  "32": 1122,
  "32.": 1129,
  "32/": 1128,
  "320": 1130,
  "33": 1132,
  "330": 1139,
  "335": 1140,
  "34": 1141,
  "35": 1148,
  "350": 1159,
  "36": 1164,
  "36)": 1169,
  "360": 1170,
  "365": 1172,
  "37": 1174,
  "370": 1179,
  "375": 1180,
  "38": 1181,
  "380": 1185,
  "388": 1187,
  "39": 1188,
  "390": 1193,
  "3:00": 1097,
  "3:10": 1120,
  "3]": 1079,
  "3\u00b0": 1073,
  "4": 1194,
  "4%": 1223,
  "4)": 1219,
  "4),": 1220,
  "4).": 1221,
  "4,": 1216,
  "4,000": 1238,
  "4,5": 1277,
  "4,7": 1292,
  "4,9": 1305,
  "4-11": 1254,
  "4.": 1218,
  "4.0": 1231,
  "4.00": 1234,
  "4.000": 1239,
  "4.1": 1251,
  "4.2": 1260,
  "4.3": 1265,
  "4.4": 1270,
  "4.5": 1278,
  "4.6": 1286,
  "4.7": 1293,
  "4.8": 1299,
  "4.9": 1306,
  "4/": 1217,
  "40": 1224,
  "40,000": 1242,
  "400": 1232,
  "41": 1245,
  "41)": 1252,
  "42": 1256,
  "43": 1261,
  "44": 1266,
  "45": 1271,
  "450": 1279,
  "46": 1281,
  "47": 1287,
  "470": 1294,
  "48": 1295,
  "485": 1300,
  "49": 1301,
  "490": 1307,
  "4]": 1222,
  "4\u00b0": 1215,
  "5": 1308,
  "5%": 1333,
  "5%)": 1334,
  "5)": 1332,
  "5,": 1329,
  "5,00": 1349,
  "5,000": 1356,
  "5-0": 1342,
  "5-6": 1398,
  "5.": 1331,
  "5.0": 1343,
  "5.00": 1351,
  "5.000": 1357,
  "5.1": 1369,
  "5.2": 1375,
  "5.3": 1381,
  "5.4": 1385,
  "5.5": 1392,
  "5.6": 1399,
  "5.7": 1403,
  "5.8": 1407,
  "5.9": 1410,
  "5/": 1330,
  "50": 1335,
  "50%": 1344,
  "50,000": 1360,
  "50.000": 1361,
  "500": 1345,
  "5000": 1352,
  "51": 1364,
  "52": 1371,
  "53": 1377,
  "54": 1382,
  "55": 1386,
  "550": 1393,
  "56": 1395,
  "57": 1400,
  "58": 1404,
  "59": 1408,
  "5:00": 1350,
  "5\u00b0": 1328,
  "6": 1411,
  "6%": 1436,
  "6%)": 1437,
  "6)": 1434,
  "6,": 1432,
  "6,000": 1452,
  "6,1": 1462,
  "6,6": 1487,
  "6,7": 1492,
  "6,8": 1497,
  "6,9": 1502,
  "6.0": 1444,
  "6.00": 1448,
  "6.000": 1453,
  "6.1": 1463,
  "6.2": 1468,
  "6.3": 1473,
  "6.4": 1476,
  "6.5": 1482,
  "6.6": 1488,
  "6.7": 1493,
  "6.7%": 1494,
  "6.8": 1498,
  "6.9": 1503,
  "6/": 1433,
  "60": 1438,
  "60,000": 1456,
  "600": 1445,
  "6000": 1449,
  "61": 1458,
  "62": 1464,
  "620": 1469,
  "63": 1470,
  "64": 1474,
  "640": 1477,
  "65": 1478,
  "650": 1483,
  "66": 1485,
  "660": 1489,
  "67": 1490,
  "68": 1495,
  "680": 1499,
  "69": 1500,
  "6]": 1435,
  "6\u00b0": 1431,
  "7": 1504,
  "7%": 1527,
  "7)": 1525,
  "7,": 1522,
  "7,000": 1536,
  "7,5%": 1566,
  "7,7": 1579,
  "7,8": 1583,
  "7,9": 1587,
  "7.": 1524,
  "7.0": 1531,
  "7.000": 1537,
  "7.1": 1546,
  "7.3": 1557,
  "7.4": 1561,
  "7.5": 1567,
  "7.5%": 1568,
  "7.6": 1574,
  "7.7": 1580,
  "7.8": 1584,
  "7.9": 1588,
  "7/": 1523,
  "70": 1528,
  "70,000": 1539,
  "700": 1532,
  "71": 1541,
  "72": 1549,
  "73": 1555,
  "74": 1559,
  "75": 1562,
  "750": 1569,
  "76": 1572,
  "760": 1575,
  "768": 1576,
  "77": 1577,
  "78": 1581,
  "79": 1585,
  "7]": 1526,
  "7\u00b0": 1521,
  "8": 1589,
  "8%": 1609,
  "8)": 1606,
  "8).": 1607,
  "8,000": 1619,
  "8,5": 1642,
  "8,6": 1647,
  "8,7": 1651,
  "8,8": 1655,
  "8,9": 1660,
  "8.": 1605,
  "8.000": 1620,
  "8.1": 1627,
  "8.2": 1630,
  "8.3": 1633,
  "8.4": 1637,
  "8.5": 1643,
  "8.6": 1648,
  "8.7": 1652,
  "8.8": 1656,
  "8.9": 1661,
  "8/": 1604,
  "80": 1610,
  "80,000": 1621,
  "800": 1614,
  "8000": 1617,
  "81": 1623,
  "82": 1628,
  "83": 1631,
  "84": 1635,
  "85": 1638,
  "86": 1645,
  "87": 1649,
  "88": 1653,
  "888": 1657,
  "89": 1658,
  "8:30": 1634,
  "8]": 1608,
  "8\u00b0": 1603,
  "9": 1662,
  "9%": 1685,
  "9)": 1682,
  "9).": 1683,
  "9,": 1679,
  "9,0": 1690,
  "9,000": 1697,
  "9,5": 1726,
  "9,6": 1732,
  "9,7": 1738,
  "9,8": 1743,
  "9,99": 1752,
  "9.": 1681,
  "9.0": 1691,
  "9.00": 1695,
  "9.000": 1698,
  "9.1": 1706,
  "9.2": 1713,
  "9.3": 1718,
  "9.5": 1727,
  "9.6": 1733,
  "9.8": 1744,
  "9.9": 1749,
  "9.99": 1753,
  "9/": 1680,
  "90": 1686,
  "90,000": 1699,
  "900": 1692,
  "9000": 1696,
  "9001": 1700,
  "9001,": 1702,
  "91": 1703,
  "91%": 1707,
  "92": 1710,
  "93": 1715,
  "94": 1719,
  "95": 1722,
  "95%": 1728,
  "96": 1729,
  "97": 1734,
  "98": 1739,
  "980": 1745,
  "99": 1746,
  "990": 1750,
  "999": 1751,
  "9]": 1684,
  "9\u00b0": 1678,
  ":": 13,
  "://": 14,
  ":00": 162,
  ":1": 264,
  ":10": 300,
  ":12": 390,
  ":14": 465,
  ":15": 492,
  ":16": 521,
  ":17": 541,
  ":18": 560,
  ":19": 594,
  ":20": 774,
  ":22": 945,
  ":23": 961,
  ":24": 976,
  ":25": 994,
  ":26": 1017,
  ":28": 1036,
  ":29": 1046,
  ":31": 1112,
  ":4": 1196,
  ":5": 1310,
  ":6": 1413,
  ":9": 1665,
  ";": 12,
  "</s>": 44670,
  "<s>": 44671,
  "<unk>": 52024,
  ">": 0,
  ">>": 1,
  ">>pob<<": 38844,
  ">>por<<": 39141,
  "?": 21,
  "?\"": 24,
  "???": 22,
  "?\u2019": 23,
  "?\u201d": 25,
  "?\u201d.": 26,
  "A": 1756,
  "AA": 1767,
  "AB": 1776,
  "ABILITY": 1866,
  "ABLE": 1870,
  "AC": 2011,
  "ACE": 2160,
  "ACK": 2277,
  "ACNUR": 2288,
  "ACT": 2420,
  "ACTIV": 2432,
  "AD": 2521,
  "ADA": 2524,
  "ADE": 2584,
  "ADO": 2733,
  "ADOR": 2765,
  "ADOS": 2788,
  "AE": 2912,
  "AF": 2943,
  "AG": 3062,
  "AGE": 3075,
  "AGEM": 3081,
  "AH": 3234,
  "AI": 3243,
  "AIDS": 3252,
  "AIN": 3261,
  "AIR": 3270,
  "AIS": 3296,
  "AK": 3328,
  "AL": 3344,
  "ALL": 3591,
  "ALS": 3685,
  "AM": 3787,
  "AMA": 3793,
  "AME": 3883,
  "AMENTO": 3911,
  "AMP": 3997,
  "AN": 4028,
  "ANA": 4034,
  "ANCE": 4113,
  "AND": 4134,
  "ANDO": 4153,
  "ANG": 4195,
  "ANS": 4334,
  "ANT": 4351,
  "ANTE": 4363,
  "ANTES": 4388,
  "AP": 4512,
  "APP": 4698,
  "AQI": 4916,
  "AR": 4966,
  "ARD": 5047,
  "ARE": 5060,
  "ART": 5296,
  "ARY": 5373,
  "AS": 5378,
  "ASE": 5402,
  "ASH": 5408,
  "AT": 5702,
  "ATCH": 5722,
  "ATE": 5724,
  "ATED": 5730,
  "ATH": 5765,
  "ATION": 5795,
  "ATIVE": 5811,
  "ATOR": 5858,
  "ATT": 5918,
  "AU": 6006,
  "AV": 6234,
  "AVE": 6289,
  "AY": 6386,
  "AZ": 6391,
  "Ab": 1774,
  "Abdu": 1824,
  "About": 1901,
  "Abrir": 1941,
  "Access": 2077,
  "According": 2123,
  "Acho": 2248,
  "Acordo": 2358,
  "Acreditamos": 2386,
  "Acredito": 2395,
  "Act": 2418,
  "Activ": 2430,
  "Acts": 2470,
  "Ad": 2519,
  "Add": 2555,
  "Africa": 3033,
  "African": 3037,
  "Africana": 3040,
  "After": 3050,
  "Ag": 3060,
  "Agora": 3146,
  "Ag\u00eancia": 3083,
  "Ah": 3232,
  "Aid": 3249,
  "Ainda": 3264,
  "Air": 3268,
  "Al": 3342,
  "Alarm": 3357,
  "Alemanha": 3452,
  "Algumas": 3514,
  "Alguns": 3517,
  "Algu\u00e9m": 3506,
  "Ali": 3525,
  "All": 3589,
  "Alpes": 3672,
  "Also": 3689,
  "Altere": 3716,
  "Although": 3738,
  "Al\u00e9m": 3447,
  "Am": 3785,
  "America": 3913,
  "American": 3919,
  "Americana": 3923,
  "Americano": 3929,
  "Among": 3974,
  "An": 4026,
  "And": 4132,
  "Angel": 4199,
  "Animated": 4254,
  "Anti": 4397,
  "Any": 4485,
  "Anywhere": 4499,
  "Ao": 4503,
  "Apartment": 4562,
  "Apenas": 4577,
  "Apesar": 4594,
  "Aplausos": 4602,
  "Apocalipse": 4631,
  "App": 4696,
  "Applause": 4728,
  "Apple": 4731,
  "Application": 4744,
  "April": 4860,
  "Ap\u00f3s": 4669,
  "Aquele": 4942,
  "Aqui": 4952,
  "Aquitaine": 4961,
  "Ar": 4964,
  "Arab": 4971,
  "Aranha": 4988,
  "Arc": 5005,
  "Are": 5058,
  "Arm": 5140,
  "Art": 5294,
  "Article": 5318,
  "Artigo": 5343,
  "As": 5376,
  "Asia": 5415,
  "Assad": 5458,
  "Assim": 5537,
  "Assist": 5563,
  "Associa": 5594,
  "Associa\u00e7\u00e3o": 5597,
  "At": 5700,
  "Atlantic": 5824,
  "Atos": 5864,
  "At\u00e9": 5727,
  "Audio": 6022,
  "August": 6049,
  "Australia": 6087,
  "Auto": 6134,
  "Azur": 6412,
  "B": 6418,
  "BA": 6424,
  "BAN": 6611,
  "BAR": 6684,
  "BB": 6893,
  "BC": 6903,
  "BE": 6914,
  "BEL": 7054,
  "BER": 7180,
  "BET": 7222,
  "BG": 7255,
  "BI": 7264,
  "BIT": 7463,
  "BL": 7480,
  "BLE": 7522,
  "BLICA": 7541,
  "BM": 7620,
  "BO": 7628,
  "BODY": 7666,
  "BOOK": 7779,
  "BOX": 7912,
  "BP": 7922,
  "BR": 7927,
  "BRA": 7933,
  "BRI": 8060,
  "BS": 8231,
  "BT": 8233,
  "BU": 8240,
  "BUSINESS": 8410,
  "BY": 8452,
  "Ba": 6422,
  "Baby": 6438,
  "Back": 6456,
  "Bah": 6508,
  "Bahn": 6515,
  "Bal": 6560,
  "Bank": 6656,
  "Banquet": 6673,
  "Bar": 6682,
  "Base": 6761,
  "Based": 6773,
  "Be": 6912,
  "Beautiful": 6950,
  "Because": 6973,
  "Before": 7003,
  "Behold": 7032,
  "Being": 7045,
  "Bem": 7110,
  "Benz": 7177,
  "Best": 7210,
  "Bi": 7262,
  "Big": 7311,
  "Bill": 7344,
  "Bissau": 7458,
  "Black": 7486,
  "Blessed": 7533,
  "Blue": 7611,
  "Bo": 7626,
  "Bom": 7718,
  "Bombaim": 7726,
  "Bombay": 7733,
  "Book": 7777,
  "Born": 7831,
  "Box": 7910,
  "Br": 7926,
  "Bra": 7931,
  "Brasil": 7979,
  "Brazil": 8000,
  "Brazilian": 8003,
  "Break": 8014,
  "Bretanha": 8045,
  "Brien": 8079,
  "British": 8128,
  "Brother": 8181,
  "Browse": 8192,
  "Brussels": 8216,
  "Bu": 8238,
  "Build": 8289,
  "Bundes": 8336,
  "Bur": 8345,
  "Business": 8408,
  "But": 8423,
  "By": 8450,
  "C": 8463,
  "CA": 8470,
  "CAD": 8531,
  "CAM": 8694,
  "CAP": 8919,
  "CAR": 9005,
  "CAS": 9226,
  "CB": 9447,
  "CC": 9452,
  "CD": 9464,
  "CE": 9470,
  "CEE": 9492,
  "CER": 9650,
  "CET": 9741,
  "CF": 9752,
  "CFSP": 9755,
  "CG": 9756,
  "CH": 9761,
  "CHA": 9767,
  "CHR": 10183,
  "CI": 10245,
  "CIA": 10248,
  "CIO": 10366,
  "CION": 10368,
  "CIONAL": 10375,
  "CK": 10510,
  "CL": 10523,
  "CM": 10803,
  "CN": 10807,
  "CO": 10815,
  "CODE": 10889,
  "COM": 11169,
  "CON": 11808,
  "COS": 13356,
  "COST": 13379,
  "COUNT": 13435,
  "CP": 13521,
  "CR": 13528,
  "CRA": 13533,
  "CS": 13908,
  "CT": 13913,
  "CTA": 13916,
  "CU": 13931,
  "CV": 14175,
  "CY": 14180,
  "Ca": 8468,
  "Cada": 8535,
  "Cal": 8596,
  "Calais": 8602,
  "Call": 8663,
  "Cam": 8692,
  "Camp": 8758,
  "Can": 8797,
  "Canada": 8805,
  "Cap": 8917,
  "Car": 9003,
  "Care": 9081,
  "Casa": 9231,
  "Cast": 9281,
  "Cat": 9307,
  "Catholic": 9373,
  "Cause": 9411,
  "Central": 9613,
  "Centro": 9630,
  "Cert": 9679,
  "Ch": 9759,
  "Cha": 9765,
  "Change": 9852,
  "Changji": 9859,
  "Chapter": 9879,
  "Char": 9884,
  "Chat": 9947,
  "Che": 9966,
  "Check": 9981,
  "Chi": 10073,
  "Children": 10099,
  "China": 10115,
  "Chinese": 10126,
  "Choose": 10162,
  "Christ": 10185,
  "Christian": 10191,
  "Church": 10225,
  "Cidade": 10285,
  "Circ": 10389,
  "City": 10487,
  "Cl": 10521,
  "Claro": 10569,
  "Class": 10576,
  "Claude": 10608,
  "Clean": 10628,
  "Clear": 10641,
  "Click": 10669,
  "Clique": 10730,
  "Closet": 10758,
  "Cloud": 10773,
  "Club": 10780,
  "Co": 10813,
  "Code": 10887,
  "Coffee": 10921,
  "Coin": 10947,
  "Col": 10961,
  "Cola": 10966,
  "Color": 11128,
  "Colossenses": 11146,
  "Colossians": 11148,
  "Com": 11167,
  "Come": 11221,
  "Comiss\u00e3o": 11305,
  "Comm": 11317,
  "Commerce": 11345,
  "Commercial": 11349,
  "Commission": 11353,
  "Community": 11407,
  "Como": 11412,
  "Comp": 11422,
  "Company": 11446,
  "Compare": 11472,
  "Con": 11806,
  "Conclu\u00ed": 11901,
  "Conf": 12054,
  "Confucian": 12195,
  "Connect": 12279,
  "Connell": 12296,
  "Consequentemente": 12386,
  "Consult": 12592,
  "Conta": 12646,
  "Contact": 12656,
  "Continua": 12776,
  "Contra": 12821,
  "Control": 12905,
  "Cookies": 13066,
  "Cor": 13145,
  "Corruption": 13332,
  "Cost": 13377,
  "Count": 13433,
  "Create": 13586,
  "Creative": 13603,
  "Credit": 13625,
  "Cri": 13681,
  "Cristo": 13771,
  "Crypt": 13897,
  "Cu": 13929,
  "Cur": 14055,
  "Custom": 14144,
  "D": 14221,
  "DA": 14227,
  "DAS": 14351,
  "DATA": 14361,
  "DB": 14409,
  "DC": 14411,
  "DD": 14414,
  "DE": 14424,
  "DEM": 14871,
  "DEN": 14956,
  "DER": 15103,
  "DES": 15149,
  "DF": 15803,
  "DG": 15804,
  "DH": 15809,
  "DI": 15822,
  "DIA": 15829,
  "DL": 16769,
  "DLL": 16775,
  "DM": 16777,
  "DN": 16781,
  "DO": 16788,
  "DOR": 16969,
  "DORES": 16975,
  "DOS": 16993,
  "DP": 17059,
  "DR": 17064,
  "DS": 17194,
  "DSL": 17196,
  "DT": 17197,
  "DU": 17202,
  "DVD": 17331,
  "DY": 17342,
  "Da": 14225,
  "Daily": 14254,
  "Dalmatia": 14270,
  "Daniel": 14307,
  "Data": 14359,
  "David": 14384,
  "Davidson": 14386,
  "Day": 14396,
  "De": 14422,
  "Dear": 14453,
  "Death": 14457,
  "December": 14502,
  "Def": 14641,
  "Defensor": 14679,
  "Deixa": 14769,
  "Deixe": 14785,
  "Democrat": 14899,
  "Depois": 15054,
  "Des": 15147,
  "Descobrimos": 15237,
  "Desde": 15296,
  "Design": 15395,
  "Desperta": 15488,
  "Despite": 15500,
  "Detail": 15606,
  "Detalhe": 15621,
  "Deus": 15697,
  "Deut": 15701,
  "Deuteronomy": 15703,
  "Deuteron\u00f4mio": 15702,
  "Deve": 15719,
  "Develop": 15724,
  "Devemos": 15743,
  "Di": 15820,
  "Dia": 15827,
  "Did": 15934,
  "Digital": 16038,
  "Direct": 16174,
  "Direito": 16210,
  "Dis": 16249,
  "Do": 16786,
  "Doctor": 16808,
  "Document": 16822,
  "Does": 16857,
  "Domin": 16906,
  "Don": 16934,
  "Donald": 16938,
  "Donnell": 16952,
  "Double": 17010,
  "Download": 17042,
  "Dr": 17062,
  "Dream": 17113,
  "Drive": 17145,
  "Du": 17200,
  "Durabolin": 17281,
  "Durante": 17289,
  "During": 17301,
  "Durob": 17304,
  "E": 17361,
  "EA": 17369,
  "EACH": 17375,
  "EAD": 17376,
  "EAN": 17382,
  "EAR": 17386,
  "EC": 17450,
  "ED": 17553,
  "EE": 17637,
  "EEA": 17639,
  "EEC": 17641,
  "EEE": 17643,
  "EEP": 17647,
  "EET": 17651,
  "EF": 17653,
  "EG": 17718,
  "EI": 17744,
  "EIRA": 17760,
  "EIRO": 17763,
  "EK": 17781,
  "EL": 17786,
  "ELEC": 17826,
  "ELL": 17987,
  "ELO": 17999,
  "EM": 18021,
  "EMA": 18025,
  "EMBER": 18071,
  "EME": 18100,
  "EMENT": 18105,
  "EMS": 18273,
  "EN": 18281,
  "ENA": 18286,
  "ENCE": 18333,
  "END": 18431,
  "ENE": 18472,
  "ENS": 18661,
  "ENT": 18699,
  "ENTE": 18711,
  "ENTES": 18750,
  "EO": 18909,
  "EP": 18917,
  "EPA": 18919,
  "EPAR": 18922,
  "EPP": 18956,
  "ER": 19023,
  "ERA": 19029,
  "ERN": 19077,
  "ERO": 19081,
  "ERRA": 19091,
  "ERS": 19113,
  "ERT": 19116,
  "ES": 19129,
  "ESA": 19134,
  "ESP": 19319,
  "ESS": 19517,
  "EST": 19549,
  "ET": 19876,
  "EU": 19959,
  "EUA": 19962,
  "EUR": 19974,
  "EVER": 20091,
  "EVO": 20144,
  "EW": 20174,
  "EX": 20179,
  "EXT": 20756,
  "EZ": 20865,
  "Each": 17373,
  "Earth": 17405,
  "East": 17421,
  "Easy": 17429,
  "Ecclesiastes": 17456,
  "Edit": 17583,
  "Editar": 17588,
  "Education": 17626,
  "Ef\u00e9sios": 17668,
  "El": 17784,
  "Ela": 17791,
  "Ele": 17822,
  "Electronic": 17861,
  "Eles": 17905,
  "Em": 18019,
  "Embora": 18083,
  "Empreendedorismo": 18229,
  "Empresa": 18249,
  "En": 18279,
  "End": 18429,
  "Energy": 18495,
  "English": 18576,
  "Enquanto": 18640,
  "Entre": 18796,
  "Entrepreneurship": 18812,
  "Ent\u00e3o": 18708,
  "Environment": 18869,
  "Ephesians": 18924,
  "Equipped": 19006,
  "Era": 19027,
  "Esbo\u00e7o": 19139,
  "Esc": 19140,
  "Esconder": 19219,
  "Espanha": 19341,
  "Espanhol": 19345,
  "Esperamos": 19419,
  "Espero": 19433,
  "Essa": 19520,
  "Esse": 19528,
  "Est": 19547,
  "Esta": 19553,
  "Estado": 19606,
  "Estamos": 19623,
  "Este": 19672,
  "Estou": 19764,
  "Estuda": 19838,
  "Estudo": 19860,
  "Est\u00e1": 19558,
  "Eu": 19957,
  "Euratom": 19979,
  "Euro": 19983,
  "Europa": 19987,
  "Europe": 19992,
  "European": 19996,
  "Even": 20070,
  "Every": 20098,
  "Everybody": 20102,
  "Everyone": 20106,
  "Everything": 20110,
  "Ex": 20177,
  "Excelente": 20255,
  "Excellent": 20262,
  "Exception": 20274,
  "Execut": 20351,
  "Existe": 20465,
  "Exodus": 20496,
  "Experiment": 20570,
  "Express": 20720,
  "Eye": 20857,
  "F": 20872,
  "FA": 20878,
  "FC": 21310,
  "FE": 21318,
  "FER": 21480,
  "FF": 21582,
  "FI": 21593,
  "FIC": 21618,
  "FICA": 21622,
  "FIN": 21807,
  "FIT": 21973,
  "FL": 22021,
  "FM": 22200,
  "FO": 22207,
  "FOR": 22336,
  "FORM": 22424,
  "FP": 22626,
  "FR": 22632,
  "FRA": 22637,
  "FS": 22904,
  "FT": 22907,
  "FTA": 22909,
  "FU": 22915,
  "FUL": 22941,
  "FX": 23105,
  "Fa": 20876,
  "Fabric": 20887,
  "Fabricante": 20899,
  "Facebook": 20925,
  "Factory": 20980,
  "Family": 21113,
  "Far": 21153,
  "Fast": 21218,
  "Father": 21234,
  "Faz": 21289,
  "Fa\u00e7a": 20915,
  "Fe": 21316,
  "February": 21347,
  "Feliz": 21432,
  "Female": 21448,
  "Feminino": 21458,
  "Fi": 21591,
  "Figura": 21699,
  "Figure": 21705,
  "File": 21722,
  "Filho": 21736,
  "Film": 21761,
  "Final": 21814,
  "Find": 21857,
  "First": 21932,
  "Flights": 22100,
  "Fo": 22205,
  "Foi": 22246,
  "Follow": 22280,
  "Food": 22312,
  "For": 22334,
  "Forecast": 22371,
  "Forex": 22401,
  "Form": 22422,
  "Foto": 22579,
  "Four": 22616,
  "Fr": 22630,
  "Fran": 22679,
  "France": 22688,
  "Frank": 22707,
  "Fran\u00e7a": 22686,
  "Free": 22750,
  "French": 22775,
  "Friend": 22832,
  "From": 22858,
  "Fu": 22913,
  "Full": 22950,
  "Fun": 22967,
  "Fund": 23006,
  "Further": 23075,
  "F\u00f3rum": 22553,
  "G": 23109,
  "GA": 23115,
  "GAR": 23235,
  "GB": 23355,
  "GC": 23358,
  "GDPR": 23360,
  "GE": 23366,
  "GEN": 23398,
  "GER": 23563,
  "GF": 23645,
  "GG": 23647,
  "GH": 23655,
  "GI": 23670,
  "GL": 23759,
  "GM": 23854,
  "GN": 23863,
  "GO": 23878,
  "GP": 24042,
  "GR": 24050,
  "GRA": 24055,
  "GRU": 24380,
  "GS": 24392,
  "GT": 24395,
  "GU": 24402,
  "GUE": 24454,
  "GV": 24557,
  "GY": 24561,
  "Ga": 23113,
  "Galatians": 23150,
  "Game": 23193,
  "Games": 23198,
  "Garanta": 23241,
  "Ge": 23364,
  "Gen": 23396,
  "Gene": 23405,
  "General": 23416,
  "Genesis": 23457,
  "George": 23553,
  "Ger": 23561,
  "Geral": 23579,
  "Germain": 23608,
  "German": 23610,
  "Germany": 23613,
  "Get": 23636,
  "Gi": 23668,
  "Girl": 23731,
  "Give": 23745,
  "Given": 23749,
  "Global": 23806,
  "Go": 23876,
  "God": 23888,
  "Golden": 23909,
  "Good": 23936,
  "Google": 23945,
  "Govern": 24002,
  "Governing": 24022,
  "Government": 24025,
  "Gr": 24048,
  "Gradua\u00e7\u00e3o": 24087,
  "Grande": 24144,
  "Grav": 24213,
  "Great": 24255,
  "Greek": 24270,
  "Green": 24275,
  "Group": 24360,
  "Grupo": 24386,
  "Gu": 24400,
  "Guangdong": 24413,
  "Guard": 24430,
  "Guerra": 24463,
  "Guias": 24497,
  "Guide": 24502,
  "G\u00e1latas": 23149,
  "G\u00eanesis": 23459,
  "H": 24567,
  "HA": 24573,
  "HAN": 24692,
  "HC": 24878,
  "HD": 24879,
  "HE": 24888,
  "HER": 25054,
  "HF": 25130,
  "HI": 25137,
  "HL": 25322,
  "HO": 25332,
  "HP": 25665,
  "HQ": 25670,
  "HR": 25673,
  "HS": 25678,
  "HT": 25682,
  "HU": 25694,
  "Ha": 24571,
  "Happy": 24745,
  "Har": 24749,
  "Have": 24846,
  "Having": 24863,
  "He": 24886,
  "Health": 24916,
  "Hebei": 24959,
  "Hebreus": 24964,
  "Hebrews": 24966,
  "Hello": 25005,
  "Help": 25013,
  "Her": 25052,
  "Here": 25075,
  "Herzegovina": 25110,
  "Hewlett": 25122,
  "Hey": 25127,
  "Hi": 25135,
  "High": 25176,
  "His": 25271,
  "History": 25309,
  "Hist\u00f3ria": 25283,
  "Ho": 25330,
  "Hoje": 25350,
  "Holy": 25398,
  "Home": 25406,
  "Homem": 25414,
  "Hot": 25602,
  "Hotel": 25610,
  "House": 25635,
  "Houve": 25649,
  "How": 25656,
  "However": 25661,
  "Hu": 25692,
  "Hub": 25703,
  "Human": 25729,
  "Hungarian": 25781,
  "Hz": 25872,
  "H\u00e1": 24577,
  "I": 25875,
  "IA": 25880,
  "IAN": 25894,
  "IAS": 25903,
  "IB": 25910,
  "IC": 25936,
  "ICA": 25939,
  "ICAL": 25942,
  "ICE": 25951,
  "ICI": 25961,
  "ICO": 25973,
  "ICS": 25990,
  "ID": 25999,
  "IDA": 26003,
  "IDADE": 26008,
  "IDE": 26018,
  "IDO": 26111,
  "IE": 26129,
  "IES": 26145,
  "IF": 26152,
  "IFF": 26159,
  "IFT": 26178,
  "IG": 26183,
  "IGHT": 26192,
  "II": 26238,
  "III": 26242,
  "IL": 26256,
  "ILI": 26273,
  "IM": 26352,
  "IMA": 26355,
  "IMENTO": 26413,
  "IMO": 26465,
  "IN": 26731,
  "INA": 26735,
  "IND": 26956,
  "INE": 27120,
  "ING": 27337,
  "INHA": 27372,
  "INO": 27493,
  "INT": 27764,
  "IO": 28259,
  "ION": 28267,
  "IONS": 28272,
  "IOR": 28275,
  "IP": 28286,
  "IR": 28304,
  "IRA": 28308,
  "IRE": 28328,
  "IS": 28400,
  "ISA": 28404,
  "ISE": 28420,
  "ISH": 28430,
  "ISMO": 28463,
  "ISO": 28469,
  "ISS": 28494,
  "IST": 28517,
  "ISTA": 28519,
  "IT": 28541,
  "ITA": 28545,
  "ITE": 28564,
  "ITO": 28587,
  "ITU": 28596,
  "ITY": 28600,
  "IV": 28608,
  "IVE": 28615,
  "IX": 28631,
  "IZA": 28639,
  "If": 26150,
  "Igreja": 26221,
  "Im": 26350,
  "Image": 26360,
  "Imagine": 26386,
  "Import": 26595,
  "In": 26729,
  "India": 26993,
  "Infelizmente": 27203,
  "Info": 27273,
  "Information": 27301,
  "Informa\u00e7\u00f5es": 27286,
  "Ingl\u00eas": 27353,
  "Inspe\u00e7\u00e3o": 27600,
  "Instalar": 27651,
  "Install": 27655,
  "Instead": 27683,
  "Institut": 27699,
  "Inter": 27864,
  "InterContinental": 27901,
  "Intercontinental": 27900,
  "Interim": 27943,
  "International": 27975,
  "Internet": 27979,
  "Invest": 28181,
  "Investiga": 28192,
  "IoT": 28281,
  "Iran": 28312,
  "Iraq": 28320,
  "Isaiah": 28408,
  "Isa\u00edas": 28410,
  "Islam": 28441,
  "Islamic": 28444,
  "Israel": 28484,
  "Israeli": 28488,
  "Isso": 28503,
  "Isto": 28534,
  "It": 28539,
  "Italian": 28550,
  "Italy": 28557,
  "It\u00e1lia": 28547,
  "Ivoire": 28627,
  "J": 28667,
  "JA": 28673,
  "JFK": 28837,
  "JO": 28863,
  "JP": 28983,
  "JPY": 28986,
  "Ja": 28671,
  "Jack": 28684,
  "James": 28711,
  "January": 28725,
  "Japan": 28727,
  "Japanese": 28730,
  "Jap\u00e3o": 28733,
  "Je": 28769,
  "Jean": 28773,
  "Jehovah": 28783,
  "Jesus": 28817,
  "Jet": 28822,
  "Jewish": 28834,
  "Jiangsu": 28844,
  "Jo": 28861,
  "Job": 28874,
  "John": 28910,
  "Joseph": 28957,
  "Jo\u00e3o": 28868,
  "Ju": 28990,
  "July": 29064,
  "Jun": 29073,
  "June": 29079,
  "Just": 29138,
  "J\u00e1": 28677,
  "K": 29171,
  "KA": 29177,
  "KB": 29234,
  "KE": 29240,
  "KER": 29272,
  "KEY": 29288,
  "KG": 29298,
  "KI": 29313,
  "KING": 29365,
  "KK": 29397,
  "KO": 29445,
  "KS": 29484,
  "KY": 29505,
  "Ka": 29175,
  "Keep": 29246,
  "Key": 29286,
  "Ki": 29311,
  "King": 29363,
  "Know": 29427,
  "L": 29512,
  "LA": 29518,
  "LAC": 29557,
  "LAN": 29644,
  "LAND": 29670,
  "LAR": 29718,
  "LAS": 29742,
  "LAX": 29848,
  "LC": 29869,
  "LD": 29873,
  "LE": 29882,
  "LED": 29955,
  "LER": 30124,
  "LES": 30127,
  "LET": 30154,
  "LEX": 30235,
  "LF": 30241,
  "LG": 30242,
  "LGW": 30249,
  "LH": 30251,
  "LI": 30268,
  "LIA": 30272,
  "LIC": 30343,
  "LIG": 30437,
  "LIM": 30494,
  "LIN": 30546,
  "LINE": 30560,
  "LING": 30578,
  "LIS": 30642,
  "LL": 30775,
  "LM": 30789,
  "LO": 30798,
  "LOG": 30886,
  "LON": 30934,
  "LOS": 31002,
  "LP": 31086,
  "LR": 31088,
  "LS": 31090,
  "LT": 31094,
  "LTD": 31098,
  "LU": 31112,
  "LUX": 31224,
  "LV": 31243,
  "LX": 31246,
  "LY": 31249,
  "La": 29516,
  "Lab": 29526,
  "Land": 29668,
  "Last": 29748,
  "Latin": 29778,
  "Laughter": 29802,
  "Law": 29837,
  "Le": 29880,
  "Learn": 29923,
  "Learning": 29929,
  "Leave": 29938,
  "Lei": 30020,
  "Leia": 30024,
  "Leninist": 30090,
  "Leste": 30148,
  "Let": 30152,
  "Lev": 30180,
  "Level": 30214,
  "Leviticus": 30227,
  "Li": 30266,
  "Lib": 30283,
  "Liber": 30289,
  "Life": 30419,
  "Light": 30460,
  "Like": 30479,
  "Line": 30558,
  "Link": 30602,
  "Linux": 30613,
  "Lisboa": 30646,
  "Listen": 30665,
  "Little": 30717,
  "Live": 30734,
  "Living": 30748,
  "Livro": 30760,
  "Lo": 30796,
  "Lock": 30863,
  "Log": 30884,
  "London": 30936,
  "Long": 30948,
  "Look": 30967,
  "Lord": 30992,
  "Louis": 31041,
  "Lounge": 31048,
  "Love": 31059,
  "Low": 31074,
  "Ltd": 31096,
  "Lu": 31110,
  "Luc": 31124,
  "Lucas": 31127,
  "Luke": 31167,
  "M": 31268,
  "MA": 31274,
  "MAD": 31333,
  "MAG": 31370,
  "MAN": 31580,
  "MAP": 31741,
  "MAR": 31770,
  "MAS": 31959,
  "MAT": 32017,
  "MAX": 32120,
  "MB": 32155,
  "MBA": 32158,
  "MC": 32169,
  "MCA": 32171,
  "MD": 32184,
  "ME": 32190,
  "MEDIA": 32267,
  "MENT": 32512,
  "MENTA": 32514,
  "MENTE": 32529,
  "MENTO": 32543,
  "MER": 32554,
  "MES": 32622,
  "MEX": 32773,
  "MF": 32785,
  "MG": 32788,
  "MI": 32796,
  "MIC": 32803,
  "MIN": 32977,
  "MIT": 33198,
  "ML": 33242,
  "MM": 33247,
  "MO": 33257,
  "MON": 33437,
  "MOS": 33659,
  "MP": 33815,
  "MR": 33824,
  "MS": 33829,
  "MT": 33837,
  "MU": 33844,
  "MV": 34070,
  "MW": 34071,
  "MX": 34073,
  "MY": 34078,
  "Ma": 31272,
  "Mac": 31283,
  "Mad": 31331,
  "Made": 31341,
  "Mag": 31368,
  "Mail": 31436,
  "Main": 31443,
  "Mainland": 31447,
  "Maior": 31462,
  "Mais": 31470,
  "Make": 31494,
  "Mal": 31510,
  "Male": 31534,
  "Man": 31578,
  "Manufacturer": 31711,
  "Manuscript": 31719,
  "Many": 31729,
  "Map": 31739,
  "Mapa": 31743,
  "Mar": 31768,
  "Marble": 31785,
  "March": 31805,
  "Marie": 31844,
  "Mark": 31874,
  "Market": 31881,
  "Martin": 31930,
  "Mas": 31957,
  "Masculino": 31971,
  "Master": 32002,
  "Mat": 32015,
  "Mateus": 32061,
  "Matt": 32089,
  "Matthew": 32095,
  "Max": 32118,
  "May": 32141,
  "Maybe": 32147,
  "Mbps": 32164,
  "Me": 32188,
  "Med": 32250,
  "Media": 32265,
  "Melhor": 32387,
  "Melhores": 32399,
  "Member": 32417,
  "Membro": 32429,
  "Membros": 32433,
  "Meme": 32435,
  "Men": 32461,
  "Mer": 32552,
  "Mesmo": 32636,
  "Metal": 32686,
  "Meu": 32768,
  "Mexico": 32781,
  "Mi": 32794,
  "Michael": 32808,
  "Michel": 32810,
  "Microsoft": 32842,
  "Mil": 32894,
  "Min": 32975,
  "Minha": 33017,
  "Mini": 33022,
  "Ministro": 33063,
  "Miss": 33137,
  "Mo": 33255,
  "Mobile": 33267,
  "Modern": 33330,
  "Mon": 33435,
  "Moncler": 33452,
  "Money": 33465,
  "Monitor": 33479,
  "Mont": 33515,
  "Mor": 33569,
  "More": 33602,
  "Most": 33677,
  "Mostrar": 33692,
  "Mother": 33706,
  "Mr": 33822,
  "Mu": 33842,
  "Muitas": 33885,
  "Muito": 33890,
  "Muitos": 33894,
  "Multi": 33908,
  "Music": 34029,
  "Muslim": 34043,
  "My": 34076,
  "M\u00e1quina": 31761,
  "M\u00e3e": 31359,
  "N": 34104,
  "NA": 34110,
  "NAP": 34189,
  "NAS": 34224,
  "NASDAQ": 34246,
  "NATO": 34285,
  "NB": 34347,
  "NC": 34351,
  "NCI": 34362,
  "NCIA": 34364,
  "ND": 34374,
  "NDA": 34376,
  "NDO": 34387,
  "NE": 34396,
  "NER": 34563,
  "NES": 34575,
  "NESS": 34581,
  "NET": 34604,
  "NEY": 34696,
  "NF": 34700,
  "NG": 34705,
  "NGL": 34711,
  "NH": 34721,
  "NI": 34735,
  "NIA": 34739,
  "NIC": 34745,
  "NING": 34815,
  "NK": 34863,
  "NL": 34864,
  "NN": 34866,
  "NO": 34877,
  "NOR": 34956,
  "NOS": 35009,
  "NOVA": 35115,
  "NP": 35157,
  "NR": 35159,
  "NS": 35161,
  "NT": 35172,
  "NTE": 35177,
  "NU": 35196,
  "NV": 35296,
  "NVI": 35298,
  "NX": 35301,
  "NY": 35304,
  "NYSE": 35310,
  "NZ": 35312,
  "Na": 34108,
  "Nada": 34130,
  "Name": 34156,
  "National": 34267,
  "Natural": 34292,
  "Nature": 34300,
  "Nazi": 34341,
  "Ne": 34394,
  "Neill": 34529,
  "Nenhum": 34545,
  "Neste": 34595,
  "Net": 34602,
  "Network": 34614,
  "Never": 34659,
  "New": 34668,
  "Next": 34692,
  "Ni": 34733,
  "Nice": 34753,
  "Nichol": 34758,
  "Night": 34790,
  "Ningu\u00e9m": 34818,
  "No": 34875,
  "Nobody": 34887,
  "North": 34990,
  "Nos": 35007,
  "Nossa": 35016,
  "Nosso": 35022,
  "Not": 35031,
  "Nota": 35036,
  "Note": 35050,
  "Nothing": 35061,
  "Nova": 35113,
  "November": 35130,
  "Novo": 35140,
  "Now": 35149,
  "Nu": 35194,
  "Number": 35225,
  "Nunca": 35250,
  "N\u00e3o": 34185,
  "N\u00f3s": 35012,
  "N\u00famero": 35239,
  "O": 35318,
  "OC": 35515,
  "OCK": 35569,
  "OD": 35616,
  "ODA": 35618,
  "OE": 35646,
  "OF": 35656,
  "OFF": 35692,
  "OG": 35743,
  "OH": 35764,
  "OJ": 35790,
  "OK": 35795,
  "OL": 35808,
  "OLA": 35810,
  "OLOGICAL": 35869,
  "OM": 35887,
  "OME": 35899,
  "OMS": 35923,
  "ON": 35930,
  "ONE": 35954,
  "ONG": 35959,
  "ONU": 35998,
  "OO": 36004,
  "OOL": 36011,
  "OP": 36018,
  "OR": 36198,
  "ORD": 36235,
  "ORE": 36267,
  "ORT": 36418,
  "OS": 36435,
  "OST": 36468,
  "OT": 36478,
  "OTA": 36480,
  "OTO": 36514,
  "OTT": 36519,
  "OU": 36528,
  "OUGH": 36534,
  "OUND": 36541,
  "OUR": 36546,
  "OUT": 36560,
  "OV": 36634,
  "OVER": 36647,
  "OW": 36693,
  "OX": 36715,
  "Obrigado": 35406,
  "Observ": 35423,
  "Obviously": 35509,
  "October": 35591,
  "Of": 35654,
  "Off": 35690,
  "Office": 35710,
  "Official": 35718,
  "Oh": 35762,
  "Okay": 35799,
  "Old": 35816,
  "On": 35928,
  "Once": 35938,
  "Onde": 35946,
  "One": 35952,
  "Online": 35980,
  "Only": 35984,
  "Op": 36016,
  "Opcional": 36029,
  "Open": 36037,
  "Operation": 36080,
  "Option": 36186,
  "Or": 36196,
  "Ordena": 36241,
  "Order": 36251,
  "Organiza": 36302,
  "Organized": 36326,
  "Origin": 36380,
  "Or\u00e9al": 36268,
  "Os": 36433,
  "Other": 36489,
  "Our": 36544,
  "Out": 36558,
  "Ouvi": 36623,
  "Over": 36645,
  "P": 36746,
  "PA": 36752,
  "PAC": 36759,
  "PAN": 36969,
  "PAR": 37029,
  "PART": 37190,
  "PAS": 37289,
  "PASS": 37298,
  "PB": 37523,
  "PC": 37525,
  "PD": 37529,
  "PDF": 37533,
  "PE": 37539,
  "PEN": 37668,
  "PER": 37779,
  "PESC": 38144,
  "PF": 38225,
  "PG": 38227,
  "PH": 38234,
  "PHONE": 38311,
  "PI": 38371,
  "PL": 38587,
  "PLA": 38592,
  "PLAN": 38621,
  "PM": 38823,
  "PN": 38826,
  "PO": 38839,
  "POL": 38944,
  "PON": 39060,
  "PORT": 39185,
  "POS": 39244,
  "POSI": 39257,
  "PP": 39467,
  "PPE": 39470,
  "PR": 39482,
  "PRESS": 39902,
  "PRNewswire": 40217,
  "PRO": 40222,
  "PS": 40966,
  "PSE": 40973,
  "PT": 41034,
  "PU": 41046,
  "PV": 41236,
  "Pa": 36750,
  "Pacific": 36767,
  "Pack": 36777,
  "Packard": 36786,
  "Pac\u00edfico": 36773,
  "Pad": 36804,
  "Page": 36847,
  "Pai": 36864,
  "Palestinian": 36933,
  "Para": 37033,
  "Parece": 37121,
  "Paris": 37147,
  "Park": 37157,
  "Parliament": 37171,
  "Part": 37188,
  "Participat": 37223,
  "Pass": 37296,
  "Paul": 37478,
  "Pay": 37506,
  "Pe": 37537,
  "Peace": 37548,
  "Pen": 37666,
  "People": 37755,
  "Per": 37777,
  "Perfect": 37859,
  "Perhaps": 37909,
  "Personal": 38063,
  "Pesquisa": 38153,
  "Peter": 38193,
  "Ph": 38232,
  "Phil": 38275,
  "Philippians": 38284,
  "Phone": 38309,
  "Photo": 38321,
  "Pi": 38369,
  "Picture": 38403,
  "Pierre": 38426,
  "Place": 38601,
  "Plan": 38619,
  "Play": 38732,
  "Please": 38762,
  "Plus": 38815,
  "Po": 38837,
  "Pode": 38861,
  "Podemos": 38868,
  "Poderoso": 38892,
  "Point": 38920,
  "Pol": 38942,
  "Pol\u00edtica": 38999,
  "Pont": 39074,
  "Pop": 39115,
  "Por": 39143,
  "Porn": 39165,
  "Porque": 39176,
  "Port": 39183,
  "Portanto": 39198,
  "Portugal": 39228,
  "Portugues": 39231,
  "Portuguese": 39238,
  "Portugu\u00eas": 39233,
  "Posso": 39325,
  "Post": 39338,
  "Posted": 39354,
  "Power": 39452,
  "Pr": 39480,
  "Pre": 39560,
  "Precisamos": 39602,
  "President": 39885,
  "Presidente": 39889,
  "Press": 39900,
  "Previous": 40021,
  "Previs\u00e3o": 40026,
  "Previs\u00f5es": 40031,
  "Pri": 40040,
  "Primeira": 40086,
  "Primeiro": 40093,
  "Prince": 40109,
  "Print": 40143,
  "Privacy": 40185,
  "Pro": 40220,
  "Product": 40348,
  "Profess": 40400,
  "Programa": 40465,
  "Project": 40520,
  "Protect": 40795,
  "Prov": 40863,
  "Provence": 40886,
  "Proverbs": 40894,
  "Psalm": 40970,
  "Public": 41056,
  "Publicado": 41070,
  "P\u00e1gina": 36853,
  "P\u00e1ssaro": 37325,
  "Q": 41250,
  "QL": 41263,
  "QU": 41268,
  "QUA": 41274,
  "QUE": 41412,
  "QUI": 41518,
  "Qaeda": 41254,
  "Qaida": 41256,
  "Qu": 41266,
  "Qua": 41272,
  "Quadro": 41288,
  "Qual": 41297,
  "Quality": 41328,
  "Qualquer": 41332,
  "Quando": 41339,
  "Quanto": 41365,
  "Que": 41410,
  "Quem": 41448,
  "Queremos": 41464,
  "Querido": 41477,
  "Quero": 41482,
  "Qui": 41516,
  "R": 41606,
  "RA": 41612,
  "RAF": 41702,
  "RAIN": 41726,
  "RAL": 41756,
  "RAM": 41764,
  "RAN": 41783,
  "RAR": 41848,
  "RAS": 41860,
  "RAY": 41929,
  "RB": 41944,
  "RC": 41946,
  "RD": 41952,
  "RE": 41960,
  "RED": 42404,
  "REE": 42475,
  "REG": 42632,
  "REM": 42980,
  "REN": 43065,
  "RES": 43356,
  "RF": 43945,
  "RG": 43950,
  "RI": 43979,
  "RIA": 43983,
  "RIC": 44005,
  "RICA": 44009,
  "RIES": 44061,
  "RING": 44107,
  "RIO": 44122,
  "RIS": 44141,
  "RIT": 44166,
  "RJ": 44199,
  "RK": 44201,
  "RL": 44203,
  "RM": 44205,
  "RMA": 44207,
  "RN": 44210,
  "RNA": 44212,
  "RO": 44218,
  "ROM": 44338,
  "RON": 44378,
  "ROS": 44409,
  "RP": 44522,
  "RR": 44529,
  "RS": 44539,
  "RT": 44543,
  "RU": 44554,
  "RW": 44660,
  "RY": 44664,
  "Ra": 41610,
  "Ranked": 41806,
  "Ray": 41927,
  "Re": 41958,
  "Read": 41995,
  "Real": 42022,
  "Recebemos": 42132,
  "Red": 42402,
  "Redirecionado": 42433,
  "Redirect": 42436,
  "Reference": 42506,
  "Region": 42669,
  "Regulamento": 42740,
  "Reilly": 42779,
  "Reino": 42797,
  "Remember": 43005,
  "Report": 43220,
  "Research": 43367,
  "Responde": 43549,
  "Responsabilidade": 43564,
  "Resposta": 43584,
  "Restaurant": 43623,
  "Reuters": 43807,
  "Rev": 43812,
  "Revelation": 43834,
  "Ri": 43977,
  "Right": 44072,
  "Rio": 44120,
  "Risos": 44163,
  "Ro": 44216,
  "Robert": 44239,
  "Rock": 44269,
  "Rom": 44336,
  "Roma": 44340,
  "Roman": 44343,
  "Romanos": 44356,
  "Rome": 44366,
  "Rose": 44419,
  "Royce": 44520,
  "Ru": 44552,
  "Run": 44613,
  "Russia": 44642,
  "Russian": 44646,
  "Ryokan": 44668,
  "R\u00c1": 41615,
  "R\u00fassia": 44644,
  "S": 44672,
  "SA": 44678,
  "SAR": 45025,
  "SAS": 45036,
  "SAT": 45040,
  "SB": 45129,
  "SC": 45135,
  "SCO": 45253,
  "SD": 45327,
  "SE": 45335,
  "SEC": 45387,
  "SELF": 45626,
  "SEN": 45693,
  "SER": 45852,
  "SERV": 45917,
  "SF": 46070,
  "SH": 46080,
  "SHIP": 46231,
  "SHOP": 46272,
  "SI": 46346,
  "SIS": 46654,
  "SK": 46724,
  "SL": 46773,
  "SM": 46856,
  "SN": 46904,
  "SO": 46935,
  "SOL": 47089,
  "SON": 47224,
  "SP": 47345,
  "SPORT": 47551,
  "SR": 47611,
  "SS": 47615,
  "SSO": 47632,
  "ST": 47639,
  "STA": 47644,
  "STAR": 47723,
  "STER": 47839,
  "STIC": 47867,
  "STO": 47908,
  "STR": 47959,
  "STRU": 48077,
  "SU": 48151,
  "SY": 48866,
  "Sa": 44676,
  "Sabe": 44691,
  "Safe": 44771,
  "Saharan": 44794,
  "Saint": 44819,
  "Sal": 44832,
  "Salmo": 44872,
  "Sam": 44914,
  "San": 44937,
  "Save": 45103,
  "Saxon": 45119,
  "Sc": 45134,
  "Scheduled": 45198,
  "School": 45220,
  "Science": 45235,
  "Script": 45306,
  "Se": 45333,
  "Sea": 45342,
  "Search": 45358,
  "Second": 45406,
  "Secret": 45417,
  "Security": 45469,
  "See": 45490,
  "Segundo": 45553,
  "Seja": 45586,
  "Select": 45612,
  "Self": 45624,
  "Sem": 45648,
  "Semitic": 45684,
  "Semitism": 45685,
  "Sempre": 45689,
  "Senhor": 45715,
  "September": 45829,
  "Serv": 45916,
  "Service": 45937,
  "Servi\u00e7o": 45947,
  "Ser\u00e1": 45856,
  "Set": 45982,
  "Seu": 46013,
  "Sex": 46049,
  "Sha": 46084,
  "Shandong": 46117,
  "Shanghai": 46121,
  "Share": 46134,
  "She": 46166,
  "Sheets": 46179,
  "Shi": 46208,
  "Shirt": 46245,
  "Shop": 46270,
  "Short": 46284,
  "Should": 46302,
  "Show": 46312,
  "Si": 46344,
  "Sight": 46388,
  "Sign": 46400,
  "Sim": 46478,
  "Since": 46564,
  "Single": 46597,
  "Sinto": 46629,
  "Sistema": 46658,
  "Site": 46677,
  "Small": 46862,
  "Smart": 46868,
  "Smith": 46885,
  "Smoking": 46895,
  "So": 46933,
  "Sobre": 46961,
  "Social": 46994,
  "Soft": 47074,
  "Sol": 47087,
  "Some": 47194,
  "Something": 47208,
  "Sometimes": 47213,
  "Somos": 47219,
  "Sorry": 47271,
  "Sou": 47285,
  "Source": 47307,
  "South": 47315,
  "Soviet": 47332,
  "Space": 47353,
  "Spain": 47362,
  "Spam": 47365,
  "Spanish": 47371,
  "Speak": 47394,
  "Special": 47411,
  "Speed": 47465,
  "Sphere": 47480,
  "Sport": 47549,
  "Spring": 47576,
  "St": 47637,
  "Standard": 47703,
  "Star": 47721,
  "State": 47752,
  "Stay": 47791,
  "Steel": 47810,
  "Step": 47829,
  "Stop": 47929,
  "Store": 47939,
  "Stra": 47962,
  "Stretch": 48033,
  "Studio": 48115,
  "Style": 48138,
  "Su": 48149,
  "Sua": 48155,
  "Sub": 48167,
  "Suite": 48447,
  "Sul": 48466,
  "Summer": 48491,
  "Super": 48524,
  "Supplier": 48611,
  "Support": 48622,
  "Sur": 48656,
  "Sustentabilidade": 48786,
  "Sweet": 48828,
  "System": 48936,
  "S\u00e3o": 45008,
  "S\u00f3": 46939,
  "T": 48947,
  "TA": 48953,
  "TAIN": 49024,
  "TAL": 49050,
  "TAN": 49108,
  "TAR": 49155,
  "TAS": 49183,
  "TB": 49225,
  "TC": 49228,
  "TE": 49239,
  "TEC": 49277,
  "TECH": 49283,
  "TEL": 49362,
  "TEM": 49420,
  "TEN": 49490,
  "TER": 49594,
  "TES": 49730,
  "TEX": 49788,
  "TF": 49809,
  "TG": 49812,
  "TH": 49817,
  "THE": 49851,
  "TI": 50074,
  "TIA": 50079,
  "TIC": 50090,
  "TICA": 50093,
  "TICKETS": 50104,
  "TICO": 50106,
  "TIN": 50179,
  "TING": 50184,
  "TION": 50203,
  "TIVA": 50283,
  "TIVO": 50302,
  "TL": 50308,
  "TM": 50311,
  "TO": 50320,
  "TOM": 50401,
  "TON": 50436,
  "TOR": 50494,
  "TORY": 50559,
  "TOS": 50561,
  "TP": 50643,
  "TR": 50647,
  "TRA": 50653,
  "TRI": 51163,
  "TRO": 51271,
  "TRON": 51285,
  "TS": 51366,
  "TT": 51375,
  "TU": 51391,
  "TULO": 51431,
  "TUR": 51467,
  "TURA": 51469,
  "TURE": 51483,
  "TV": 51536,
  "TX": 51568,
  "TY": 51572,
  "Ta": 48951,
  "Table": 48974,
  "Take": 49038,
  "Talk": 49068,
  "Talvez": 49081,
  "Tamb\u00e9m": 49094,
  "Tarefa": 49163,
  "Te": 49237,
  "Team": 49260,
  "Tech": 49281,
  "Telecomunica\u00e7\u00f5es": 49372,
  "Tell": 49412,
  "Tem": 49418,
  "Temos": 49434,
  "Temp": 49437,
  "Ten": 49488,
  "Tenho": 49527,
  "Ter": 49592,
  "Term": 49635,
  "Terra": 49673,
  "Text": 49792,
  "Texto": 49802,
  "Th": 49815,
  "Thank": 49831,
  "That": 49842,
  "The": 49849,
  "Then": 49870,
  "There": 49895,
  "Therefore": 49901,
  "These": 49917,
  "They": 49925,
  "Things": 49946,
  "Think": 49950,
  "Third": 49961,
  "This": 49972,
  "Those": 49989,
  "Thou": 49992,
  "Though": 49996,
  "Three": 50022,
  "Through": 50042,
  "Thus": 50062,
  "Ti": 50072,
  "Time": 50158,
  "To": 50318,
  "Toda": 50343,
  "Todas": 50346,
  "Today": 50351,
  "Todo": 50357,
  "Todos": 50361,
  "Together": 50368,
  "Top": 50470,
  "Tor": 50492,
  "Total": 50569,
  "Touch": 50581,
  "Tra": 50651,
  "Track": 50701,
  "Trade": 50719,
  "Tradicionalmente": 50734,
  "Tradu\u00e7\u00e3o": 50748,
  "Trans": 50831,
  "Trata": 51011,
  "Travel": 51045,
  "Tree": 51109,
  "Tri": 51161,
  "True": 51334,
  "Trump": 51341,
  "Trust": 51349,
  "Truth": 51356,
  "Tu": 51389,
  "Tube": 51407,
  "Tudo": 51423,
  "Tur": 51465,
  "Turkey": 51499,
  "Two": 51566,
  "Type": 51578,
  "U": 51601,
  "UAL": 51608,
  "UB": 51612,
  "UC": 51623,
  "UCH": 51629,
  "UD": 51638,
  "UE": 51645,
  "UF": 51652,
  "UG": 51659,
  "UI": 51672,
  "UK": 51679,
  "UL": 51689,
  "ULA": 51693,
  "ULT": 51718,
  "UM": 51750,
  "UMA": 51756,
  "UN": 51779,
  "UP": 52112,
  "UR": 52153,
  "URA": 52155,
  "URE": 52175,
  "URI": 52195,
  "URO": 52209,
  "US": 52223,
  "USA": 52229,
  "USD": 52252,
  "USE": 52258,
  "USP": 52293,
  "UST": 52299,
  "UT": 52318,
  "UV": 52394,
  "UX": 52399,
  "Um": 51748,
  "Uma": 51754,
  "Un": 51777,
  "Under": 51836,
  "Unfortunately": 51908,
  "Uni": 51921,
  "United": 51988,
  "Universidade": 52006,
  "University": 52017,
  "Until": 52091,
  "Up": 52110,
  "Uruguay": 52217,
  "Use": 52256,
  "User": 52271,
  "Using": 52286,
  "V": 52408,
  "VA": 52414,
  "VAN": 52541,
  "VAR": 52566,
  "VC": 52649,
  "VE": 52654,
  "VEIS": 52708,
  "VEL": 52718,
  "VEN": 52745,
  "VER": 52833,
  "VI": 53005,
  "VIA": 53012,
  "VIS": 53319,
  "VISION": 53344,
  "VM": 53476,
  "VO": 53482,
  "VP": 53650,
  "VPN": 53652,
  "VR": 53655,
  "VS": 53659,
  "Va": 52412,
  "Vai": 52452,
  "Val": 52460,
  "Vamos": 52532,
  "Ve": 52652,
  "Veja": 52711,
  "Ver": 52831,
  "Very": 52954,
  "Vi": 53003,
  "Via": 53010,
  "Video": 53090,
  "View": 53123,
  "Vision": 53342,
  "Voc\u00ea": 53509,
  "Vol": 53526,
  "Voos": 53602,
  "Vou": 53634,
  "W": 53679,
  "WA": 53684,
  "WAY": 53859,
  "WC": 53864,
  "WD": 53866,
  "WE": 53871,
  "WEB": 53906,
  "WG": 53989,
  "WHO": 54066,
  "WI": 54090,
  "WN": 54250,
  "WP": 54384,
  "WR": 54387,
  "WS": 54426,
  "Wait": 53699,
  "Walk": 53718,
  "Wall": 53727,
  "War": 53758,
  "Ware": 53768,
  "Watch": 53824,
  "Water": 53835,
  "We": 53869,
  "Web": 53904,
  "Welcome": 53948,
  "Well": 53959,
  "West": 53981,
  "Western": 53985,
  "What": 53996,
  "Whatever": 54000,
  "When": 54014,
  "Where": 54020,
  "Whether": 54032,
  "Which": 54038,
  "While": 54044,
  "White": 54059,
  "Who": 54064,
  "Whoever": 54070,
  "Wholesaler": 54077,
  "Why": 54083,
  "Wi": 54088,
  "Wiki": 54124,
  "Will": 54142,
  "Win": 54156,
  "Windows": 54166,
  "Wire": 54195,
  "With": 54222,
  "Without": 54235,
  "Women": 54268,
  "Word": 54298,
  "Work": 54306,
  "Works": 54326,
  "World": 54335,
  "Would": 54372,
  "X": 54444,
  "XL": 54482,
  "XT": 54490,
  "XVIII": 54495,
  "XX": 54498,
  "XXX": 54503,
  "Xinhua": 54478,
  "Y": 54508,
  "YO": 54588,
  "YS": 54633,
  "YY": 54644,
  "Yeah": 54539,
  "Year": 54543,
  "Yes": 54564,
  "Yet": 54570,
  "You": 54606,
  "Young": 54611,
  "Your": 54618,
  "Z": 54647,
  "ZA": 54651,
  "ZAR": 54667,
  "ZE": 54673,
  "ZER": 54692,
  "ZZ": 54770,
  "Zhejiang": 54701,
  "[": 82,
  "[+]": 84,
  "[...]": 83,
  "[10]": 302,
  "[11]": 360,
  "[12]": 395,
  "[13]": 434,
  "[14]": 467,
  "[15]": 494,
  "[16]": 523,
  "[17]": 543,
  "[18]": 563,
  "[19": 596,
  "[19]": 597,
  "[1]": 271,
  "[1][2]": 394,
  "[20]": 776,
  "[21]": 933,
  "[22]": 947,
  "[23]": 962,
  "[24]": 978,
  "[25]": 995,
  "[26]": 1018,
  "[27]": 1027,
  "[28]": 1037,
  "[29]": 1047,
  "[2]": 745,
  "[30]": 1084,
  "[31]": 1113,
  "[32]": 1123,
  "[33]": 1133,
  "[34]": 1142,
  "[35]": 1150,
  "[36]": 1165,
  "[37]": 1175,
  "[38]": 1182,
  "[39]": 1189,
  "[3]": 1058,
  "[40]": 1226,
  "[41]": 1246,
  "[42]": 1257,
  "[43]": 1262,
  "[44]": 1267,
  "[45]": 1272,
  "[46]": 1282,
  "[47]": 1288,
  "[48]": 1296,
  "[49]": 1302,
  "[4]": 1201,
  "[50]": 1337,
  "[51]": 1365,
  "[52]": 1372,
  "[53]": 1378,
  "[54]": 1383,
  "[55]": 1387,
  "[56]": 1396,
  "[57]": 1401,
  "[58]": 1405,
  "[5]": 1314,
  "[60]": 1439,
  "[62]": 1465,
  "[6]": 1418,
  "[72]": 1550,
  "[7]": 1509,
  "[8]": 1592,
  "[9]": 1669,
  "]": 85,
  "].": 86,
  "][": 87,
  "]]": 88,
  "_": 3,
  "__": 4,
  "________": 5,
  "a": 1754,
  "aa": 1766,
  "aaS": 1772,
  "ab": 1773,
  "aba": 1778,
  "abba": 1808,
  "abe": 1830,
  "abertura": 1850,
  "abi": 1853,
  "abilidade": 1859,
  "abilit": 1860,
  "abilities": 1861,
  "ability": 1863,
  "able": 1868,
  "ably": 1871,
  "about": 1899,
  "absor": 1965,
  "ac": 2009,
  "aca": 2013,
  "acc": 2052,
  "accept": 2067,
  "access": 2075,
  "accio": 2095,
  "according": 2121,
  "account": 2128,
  "ace": 2158,
  "aceae": 2161,
  "aceous": 2194,
  "acetyl": 2219,
  "ach": 2220,
  "ache": 2233,
  "acher": 2236,
  "achi": 2237,
  "aci": 2251,
  "acid": 2253,
  "acillus": 2270,
  "acima": 2271,
  "acion": 2274,
  "ack": 2276,
  "acle": 2286,
  "aco": 2289,
  "acre": 2378,
  "acredita": 2380,
  "act": 2416,
  "acting": 2423,
  "action": 2425,
  "activ": 2429,
  "activa": 2433,
  "activation": 2439,
  "active": 2442,
  "actividade": 2446,
  "activity": 2456,
  "activo": 2459,
  "actual": 2474,
  "acu": 2488,
  "acy": 2516,
  "ad": 2517,
  "ada": 2523,
  "adapt": 2528,
  "adas": 2552,
  "add": 2553,
  "added": 2557,
  "address": 2575,
  "addy": 2582,
  "ade": 2583,
  "adeira": 2586,
  "adi": 2621,
  "admin": 2674,
  "administration": 2691,
  "ado": 2732,
  "ador": 2764,
  "adora": 2766,
  "adores": 2780,
  "ados": 2787,
  "adult": 2819,
  "advanced": 2834,
  "ae": 2911,
  "aeroporto": 2932,
  "af": 2941,
  "affaire": 2971,
  "affe": 2974,
  "affir": 2989,
  "africano": 3042,
  "after": 3048,
  "ag": 3059,
  "aga": 3064,
  "against": 3068,
  "age": 3072,
  "aged": 3076,
  "agem": 3080,
  "agens": 3094,
  "agent": 3095,
  "ager": 3102,
  "aggi": 3105,
  "agging": 3106,
  "agh": 3115,
  "agi": 3116,
  "agin": 3123,
  "aging": 3125,
  "agne": 3136,
  "ago": 3138,
  "agonist": 3142,
  "agora": 3144,
  "agre": 3172,
  "agu": 3211,
  "agua": 3212,
  "ah": 3231,
  "ahu": 3240,
  "ai": 3241,
  "aid": 3247,
  "ail": 3254,
  "ain": 3260,
  "ainda": 3262,
  "air": 3266,
  "aire": 3277,
  "ais": 3295,
  "aj": 3298,
  "aja": 3299,
  "ajuda": 3301,
  "ak": 3326,
  "aka": 3330,
  "ake": 3331,
  "aker": 3332,
  "akh": 3333,
  "aki": 3334,
  "aking": 3336,
  "akov": 3337,
  "aku": 3338,
  "akura": 3339,
  "al": 3340,
  "ala": 3347,
  "aldehyde": 3418,
  "aldi": 3422,
  "aldo": 3423,
  "ale": 3424,
  "ales": 3472,
  "algo": 3496,
  "algumas": 3512,
  "alha": 3520,
  "alhada": 3521,
  "ali": 3523,
  "alia": 3527,
  "alidade": 3543,
  "alis": 3577,
  "ality": 3580,
  "all": 3587,
  "alla": 3593,
  "alle": 3595,
  "alli": 3610,
  "allow": 3624,
  "ally": 3634,
  "alma": 3636,
  "almost": 3651,
  "almo\u00e7o": 3646,
  "alo": 3654,
  "alone": 3663,
  "also": 3687,
  "alta": 3692,
  "alter": 3698,
  "although": 3736,
  "alto": 3742,
  "alu": 3750,
  "alunos": 3768,
  "alves": 3773,
  "alvo": 3775,
  "always": 3778,
  "al\u00e9m": 3445,
  "al\u00e9rgico": 3463,
  "am": 3783,
  "ama": 3790,
  "amar": 3816,
  "amba": 3840,
  "ambi": 3846,
  "ambiente": 3862,
  "ambu": 3877,
  "amea\u00e7a": 3884,
  "amente": 3909,
  "amento": 3910,
  "american": 3917,
  "americana": 3921,
  "americanas": 3925,
  "americano": 3927,
  "americanos": 3931,
  "ami": 3937,
  "amide": 3943,
  "amin": 3955,
  "amina": 3956,
  "amine": 3957,
  "amo": 3970,
  "among": 3972,
  "amos": 3985,
  "amp": 3995,
  "ampa": 3998,
  "amphetamine": 3999,
  "an": 4024,
  "ana": 4032,
  "analysis": 4081,
  "ance": 4112,
  "ancing": 4127,
  "ancy": 4129,
  "and": 4130,
  "anda": 4136,
  "ander": 4147,
  "ando": 4152,
  "andro": 4161,
  "ane": 4168,
  "anfetamina": 4188,
  "ang": 4193,
  "anga": 4196,
  "angel": 4197,
  "angle": 4212,
  "angled": 4215,
  "angling": 4218,
  "ango": 4221,
  "ani": 4233,
  "ania": 4234,
  "animal": 4247,
  "anitary": 4263,
  "ann": 4272,
  "anna": 4274,
  "anne": 4276,
  "annon": 4287,
  "annual": 4297,
  "ano": 4302,
  "another": 4329,
  "anov": 4332,
  "ans": 4333,
  "ant": 4349,
  "anta": 4352,
  "ante": 4361,
  "anteriormente": 4382,
  "antes": 4385,
  "anti": 4395,
  "ants": 4458,
  "any": 4483,
  "anza": 4500,
  "an\u00e1lise": 4056,
  "an\u00e7a": 4110,
  "ao": 4501,
  "ap": 4510,
  "apa": 4514,
  "apart": 4551,
  "apenas": 4575,
  "apesar": 4592,
  "api": 4597,
  "aplica": 4603,
  "apocalyptic": 4636,
  "apocal\u00edptico": 4633,
  "app": 4694,
  "appear": 4713,
  "apple": 4729,
  "appointed": 4755,
  "appreciat": 4761,
  "appropriat": 4775,
  "appropriate": 4776,
  "approval": 4783,
  "approved": 4787,
  "approximately": 4793,
  "aprendizagem": 4832,
  "apresenta": 4835,
  "aprox": 4895,
  "aproximadamente": 4900,
  "ap\u00e9is": 4569,
  "ap\u00f3s": 4667,
  "aq": 4915,
  "aquecimento": 4933,
  "aquele": 4940,
  "aqui": 4950,
  "ar": 4962,
  "ara": 4968,
  "aram": 4985,
  "arb\u00edtrio": 5000,
  "arch": 5014,
  "ard": 5046,
  "ardi": 5050,
  "ardo": 5051,
  "are": 5056,
  "area": 5062,
  "ares": 5076,
  "ari": 5103,
  "aria": 5105,
  "arian": 5108,
  "aries": 5112,
  "arily": 5113,
  "arina": 5114,
  "ario": 5115,
  "arium": 5130,
  "arius": 5131,
  "ark": 5133,
  "arm": 5138,
  "arma": 5143,
  "aro": 5190,
  "aroom": 5195,
  "around": 5197,
  "arquivo": 5222,
  "arra": 5228,
  "arrega": 5255,
  "arrow": 5282,
  "art": 5292,
  "arte": 5297,
  "articular": 5328,
  "artigo": 5341,
  "ary": 5372,
  "ar\u00e1": 4970,
  "as": 5374,
  "asa": 5382,
  "asco": 5399,
  "ase": 5401,
  "ash": 5405,
  "ashi": 5411,
  "asi": 5413,
  "asia": 5414,
  "ask": 5428,
  "ass": 5456,
  "assa": 5457,
  "asse": 5479,
  "assessment": 5518,
  "assi": 5530,
  "assim": 5535,
  "assist": 5561,
  "asso": 5590,
  "associa": 5592,
  "associated": 5609,
  "ast": 5652,
  "asta": 5653,
  "aster": 5655,
  "astic": 5661,
  "at": 5698,
  "ata": 5704,
  "ataque": 5717,
  "atch": 5721,
  "ate": 5723,
  "ated": 5729,
  "ates": 5761,
  "ath": 5764,
  "ati": 5777,
  "atic": 5778,
  "ating": 5782,
  "atio": 5793,
  "ation": 5794,
  "ations": 5796,
  "ativa": 5802,
  "ative": 5810,
  "atividade": 5812,
  "ativo": 5819,
  "ato": 5843,
  "atomic": 5846,
  "ator": 5856,
  "ators": 5861,
  "atory": 5862,
  "ats": 5917,
  "atta": 5919,
  "attack": 5925,
  "attle": 5956,
  "atu": 5974,
  "atual": 5978,
  "atura": 6003,
  "at\u00e9": 5725,
  "au": 6004,
  "aud": 6011,
  "audi": 6013,
  "augh": 6045,
  "aught": 6046,
  "ault": 6057,
  "aunt": 6073,
  "auricular": 6076,
  "author": 6109,
  "auto": 6132,
  "automatic": 6157,
  "autor": 6195,
  "aux": 6221,
  "av": 6232,
  "ava": 6236,
  "availability": 6239,
  "available": 6242,
  "avalia\u00e7\u00e3o": 6247,
  "avam": 6265,
  "avan": 6267,
  "ave": 6287,
  "aven": 6294,
  "aventura": 6299,
  "aventuran\u00e7a": 6302,
  "average": 6307,
  "avi": 6312,
  "avia": 6315,
  "avi\u00f5es": 6324,
  "avo": 6335,
  "aw": 6345,
  "awa": 6347,
  "awaited": 6349,
  "awareness": 6363,
  "away": 6366,
  "awn": 6373,
  "ax": 6375,
  "axis": 6380,
  "ay": 6384,
  "aya": 6387,
  "az": 6389,
  "aza": 6392,
  "azar": 6393,
  "azardous": 6394,
  "aze": 6395,
  "azi": 6400,
  "azine": 6401,
  "azione": 6402,
  "azole": 6403,
  "azul": 6408,
  "azz": 6414,
  "azza": 6415,
  "a\u00e7o": 2290,
  "a\u00e7\u00e3o": 2045,
  "a\u00e7\u00f5es": 2293,
  "a\u00e7\u00facar": 2490,
  "b": 6416,
  "ba": 6420,
  "bach": 6447,
  "back": 6454,
  "backed": 6461,
  "bacteria": 6479,
  "bacterium": 6485,
  "bad": 6486,
  "bag": 6494,
  "bah": 6507,
  "bai": 6518,
  "baixa": 6532,
  "baixo": 6543,
  "bak": 6549,
  "bal": 6558,
  "bala": 6562,
  "balance": 6567,
  "balanced": 6570,
  "ball": 6592,
  "ban": 6608,
  "bana": 6612,
  "band": 6625,
  "bang": 6638,
  "bank": 6654,
  "banning": 6670,
  "bar": 6680,
  "bara": 6685,
  "bas": 6755,
  "base": 6759,
  "based": 6771,
  "bat": 6823,
  "bata": 6826,
  "bate": 6835,
  "bati": 6856,
  "bau": 6880,
  "bay": 6888,
  "bb": 6892,
  "bbe": 6896,
  "bber": 6897,
  "bbi": 6898,
  "bble": 6899,
  "bby": 6901,
  "bc": 6902,
  "bd": 6908,
  "be": 6910,
  "bear": 6929,
  "bearing": 6933,
  "beat": 6941,
  "because": 6971,
  "beck": 6975,
  "bed": 6982,
  "bedroom": 6986,
  "bee": 6993,
  "before": 7001,
  "begotten": 7018,
  "bei": 7034,
  "being": 7043,
  "bel": 7052,
  "bele": 7060,
  "believe": 7075,
  "believers": 7080,
  "bell": 7086,
  "bello": 7091,
  "bem": 7108,
  "ben": 7112,
  "benefit": 7150,
  "benef\u00edcio": 7144,
  "benz": 7176,
  "ber": 7178,
  "berg": 7182,
  "berger": 7186,
  "berry": 7198,
  "bert": 7200,
  "berto": 7202,
  "bes": 7203,
  "best": 7208,
  "bet": 7219,
  "beth": 7226,
  "better": 7235,
  "between": 7241,
  "bh": 7256,
  "bha": 7257,
  "bi": 7260,
  "bia": 7266,
  "bian": 7267,
  "biblio": 7282,
  "bica": 7288,
  "bid": 7297,
  "bie": 7304,
  "big": 7309,
  "bike": 7317,
  "bil": 7323,
  "bili": 7336,
  "bilidade": 7338,
  "bility": 7342,
  "billion": 7349,
  "bin": 7357,
  "bina": 7360,
  "binding": 7367,
  "bine": 7369,
  "bing": 7370,
  "bio": 7375,
  "biographical": 7391,
  "biological": 7398,
  "biotic": 7425,
  "bird": 7430,
  "birth": 7437,
  "bis": 7443,
  "bit": 7460,
  "bito": 7468,
  "biz": 7472,
  "bi\u00f3tica": 7426,
  "bi\u00f3ticos": 7427,
  "bj": 7478,
  "bl": 7479,
  "bla": 7482,
  "black": 7484,
  "blanc": 7503,
  "blast": 7513,
  "ble": 7520,
  "bli": 7539,
  "blica": 7540,
  "blind": 7542,
  "bling": 7546,
  "blo": 7552,
  "block": 7556,
  "blog": 7570,
  "blood": 7582,
  "blown": 7605,
  "blu": 7607,
  "blue": 7609,
  "bly": 7619,
  "bn": 7623,
  "bo": 7624,
  "boa": 7631,
  "board": 7634,
  "boarding": 7637,
  "boat": 7644,
  "boca": 7652,
  "bodied": 7658,
  "body": 7663,
  "bol": 7684,
  "bola": 7687,
  "bom": 7716,
  "bomb": 7720,
  "bomba": 7723,
  "bon": 7739,
  "bond": 7743,
  "bone": 7751,
  "boo": 7772,
  "book": 7775,
  "booking": 7781,
  "books": 7788,
  "boot": 7799,
  "bor": 7805,
  "bora": 7808,
  "bord": 7811,
  "border": 7816,
  "borg": 7825,
  "born": 7829,
  "borne": 7833,
  "boro": 7835,
  "borough": 7836,
  "bos": 7841,
  "bot": 7852,
  "both": 7862,
  "bou": 7873,
  "bound": 7880,
  "bour": 7886,
  "bourg": 7889,
  "bourne": 7893,
  "bow": 7901,
  "box": 7908,
  "boy": 7915,
  "bps": 7924,
  "br": 7925,
  "bra": 7929,
  "brain": 7948,
  "bran": 7955,
  "branco": 7963,
  "brand": 7967,
  "brasil": 7977,
  "bre": 8005,
  "break": 8012,
  "breaker": 8017,
  "breaking": 8020,
  "breath": 8029,
  "bri": 8057,
  "bridge": 8070,
  "briga": 8081,
  "brigando": 8086,
  "bright": 8088,
  "bro": 8135,
  "broker": 8159,
  "bron": 8165,
  "brook": 8174,
  "brother": 8179,
  "brown": 8188,
  "bru": 8199,
  "brush": 8212,
  "bs": 8230,
  "bu": 8236,
  "buck": 8247,
  "bud": 8254,
  "budget": 8265,
  "buf\u00ea": 8276,
  "bug": 8283,
  "build": 8287,
  "building": 8294,
  "built": 8300,
  "bul": 8303,
  "bula": 8305,
  "bull": 8316,
  "bulo": 8326,
  "bun": 8329,
  "bund": 8333,
  "bur": 8343,
  "bureaucrat": 8354,
  "burg": 8356,
  "burgh": 8361,
  "burgo": 8363,
  "burn": 8375,
  "bury": 8389,
  "bus": 8391,
  "business": 8406,
  "but": 8421,
  "buti": 8427,
  "buy": 8438,
  "by": 8448,
  "bye": 8454,
  "byte": 8458,
  "b\u00e1": 6426,
  "b\u00e9": 6916,
  "b\u00f3": 7630,
  "b\u00f3lica": 7698,
  "c": 8461,
  "ca": 8466,
  "cab": 8477,
  "caba": 8480,
  "cabe\u00e7a": 8487,
  "cabe\u00e7as": 8491,
  "cabo": 8511,
  "cad": 8530,
  "cada": 8533,
  "cadas": 8538,
  "cado": 8554,
  "cados": 8556,
  "cai": 8574,
  "caixa": 8586,
  "cake": 8591,
  "cal": 8594,
  "calc": 8606,
  "calibr": 8650,
  "call": 8661,
  "called": 8666,
  "calorie": 8683,
  "cam": 8690,
  "cama": 8697,
  "cambi": 8711,
  "came": 8721,
  "camera": 8728,
  "camp": 8756,
  "campo": 8782,
  "can": 8795,
  "cana": 8800,
  "cancer": 8836,
  "cancer\u00edgeno": 8842,
  "cando": 8862,
  "cano": 8879,
  "cante": 8894,
  "canto": 8898,
  "cao": 8908,
  "cap": 8915,
  "capacidade": 8927,
  "capacity": 8937,
  "capital": 8949,
  "capitalist": 8955,
  "car": 9001,
  "cara": 9008,
  "carb": 9034,
  "carbon": 9040,
  "card": 9053,
  "cardi": 9061,
  "cardiovasculares": 9075,
  "care": 9079,
  "carga": 9098,
  "caroteno": 9138,
  "carp": 9139,
  "carrega": 9150,
  "carregue": 9164,
  "carreg\u00e1": 9152,
  "carro": 9179,
  "cas": 9223,
  "casa": 9229,
  "case": 9254,
  "cash": 9261,
  "casi\u00f5es": 9267,
  "caso": 9268,
  "cast": 9279,
  "cat": 9305,
  "catch": 9338,
  "cate": 9343,
  "categoria": 9348,
  "category": 9358,
  "catering": 9364,
  "cation": 9377,
  "cause": 9409,
  "cava": 9424,
  "ca\u00e7\u00e3o": 8523,
  "cc": 9451,
  "cca": 9454,
  "cchi": 9457,
  "cci": 9458,
  "ccio": 9459,
  "cco": 9460,
  "ce": 9467,
  "cea": 9473,
  "ced": 9484,
  "cedido": 9489,
  "ceding": 9490,
  "cei": 9498,
  "cel": 9501,
  "cele": 9504,
  "cell": 9538,
  "cellular": 9544,
  "celular": 9553,
  "cen": 9567,
  "cena": 9569,
  "cendo": 9575,
  "ceno": 9576,
  "censor": 9579,
  "cent": 9585,
  "cente": 9589,
  "center": 9594,
  "centered": 9597,
  "cento": 9605,
  "central": 9611,
  "centric": 9622,
  "centrismo": 9627,
  "centro": 9628,
  "century": 9636,
  "cep": 9640,
  "cephalo": 9644,
  "cept": 9645,
  "ception": 9646,
  "cep\u00e7\u00e3o": 9643,
  "cer": 9647,
  "cerca": 9657,
  "cert": 9678,
  "certa": 9680,
  "certain": 9683,
  "certified": 9709,
  "certo": 9715,
  "ces": 9725,
  "cess": 9732,
  "cession\u00e1rio": 9738,
  "cess\u00e3o": 9735,
  "ceta": 9742,
  "ceto": 9744,
  "ceu": 9746,
  "ce\u00e7\u00e3o": 9481,
  "cf": 9751,
  "ch": 9757,
  "cha": 9763,
  "chain": 9773,
  "chair": 9777,
  "chal": 9785,
  "challenge": 9793,
  "chamada": 9803,
  "chamado": 9807,
  "champ": 9827,
  "chan": 9838,
  "chang": 9848,
  "change": 9850,
  "changing": 9857,
  "channel": 9860,
  "char": 9882,
  "character": 9887,
  "characterization": 9894,
  "charge": 9899,
  "charging": 9906,
  "chart": 9930,
  "chat": 9945,
  "chave": 9957,
  "che": 9964,
  "check": 9979,
  "ched": 9990,
  "chefe": 9998,
  "chega": 10003,
  "chel": 10029,
  "chem": 10031,
  "chemical": 10033,
  "chemistry": 10039,
  "chen": 10044,
  "cheng": 10046,
  "chenko": 10049,
  "cher": 10052,
  "ches": 10059,
  "chester": 10063,
  "chet": 10065,
  "chev": 10066,
  "chi": 10071,
  "chia": 10076,
  "chief": 10085,
  "chieving": 10089,
  "child": 10091,
  "children": 10097,
  "chin": 10111,
  "ching": 10129,
  "chip": 10130,
  "chlor": 10137,
  "chloro": 10141,
  "cho": 10142,
  "choice": 10150,
  "chondr": 10158,
  "choque": 10169,
  "chrom": 10201,
  "chron": 10206,
  "cht": 10215,
  "chu": 10216,
  "church": 10223,
  "chuva": 10235,
  "chy": 10241,
  "ch\u00e1": 9768,
  "ci": 10242,
  "cia": 10247,
  "ciado": 10250,
  "ciais": 10251,
  "cial": 10252,
  "ciano": 10254,
  "cible": 10260,
  "cic": 10261,
  "ciclo": 10270,
  "cid": 10275,
  "cida": 10276,
  "cidade": 10283,
  "cide": 10289,
  "cido": 10291,
  "cie": 10292,
  "cient": 10298,
  "ciente": 10299,
  "cies": 10312,
  "cigarette": 10315,
  "cil": 10321,
  "cili": 10322,
  "cilia": 10323,
  "cimento": 10330,
  "cin": 10332,
  "cina": 10334,
  "cine": 10340,
  "cing": 10348,
  "cinho": 10350,
  "cino": 10352,
  "cio": 10365,
  "cion": 10367,
  "ciona": 10370,
  "cionada": 10371,
  "cionado": 10372,
  "cionais": 10373,
  "cional": 10374,
  "cionamento": 10376,
  "cionar": 10377,
  "cione": 10379,
  "cionismo": 10380,
  "cionista": 10381,
  "cionistas": 10382,
  "cion\u00e1ria": 10378,
  "ciosa": 10383,
  "cioso": 10384,
  "cious": 10385,
  "cip": 10386,
  "cir": 10387,
  "circ": 10388,
  "circle": 10392,
  "circuit": 10399,
  "circuito": 10402,
  "cis": 10443,
  "cision": 10446,
  "cis\u00e3o": 10444,
  "cit": 10448,
  "cita": 10451,
  "citation": 10461,
  "cite": 10463,
  "cited": 10465,
  "cito": 10477,
  "city": 10485,
  "civil": 10495,
  "ci\u00eancia": 10293,
  "ci\u00f3n": 10369,
  "ck": 10509,
  "cke": 10512,
  "cken": 10513,
  "cker": 10514,
  "cket": 10515,
  "cking": 10516,
  "ckle": 10517,
  "cks": 10518,
  "cl": 10519,
  "cla": 10525,
  "claim": 10531,
  "clar": 10547,
  "clara": 10549,
  "clara\u00e7\u00f5es": 10552,
  "clare": 10555,
  "claro": 10567,
  "class": 10574,
  "classe": 10578,
  "clav": 10619,
  "cle": 10624,
  "clean": 10626,
  "clear": 10639,
  "cli": 10661,
  "click": 10667,
  "client": 10673,
  "cliff": 10682,
  "clima": 10686,
  "climate": 10689,
  "clina": 10705,
  "clinical": 10711,
  "clip": 10722,
  "clique": 10728,
  "clo": 10733,
  "clock": 10737,
  "clor": 10743,
  "close": 10747,
  "closed": 10750,
  "closure": 10761,
  "cloth": 10764,
  "cloud": 10771,
  "clu": 10777,
  "club": 10778,
  "clude": 10786,
  "cluded": 10787,
  "cluding": 10788,
  "clus": 10792,
  "clusion": 10794,
  "clus\u00e3o": 10793,
  "cl\u00e1ssico": 10587,
  "cm": 10801,
  "cn": 10806,
  "co": 10811,
  "coagula": 10824,
  "coast": 10834,
  "coat": 10839,
  "coated": 10842,
  "coberta": 10848,
  "cock": 10872,
  "code": 10885,
  "codificado": 10894,
  "codifica\u00e7\u00e3o": 10892,
  "coes": 10911,
  "coffee": 10919,
  "coin": 10945,
  "col": 10959,
  "cola": 10964,
  "colch\u00f5es": 10984,
  "cole": 10987,
  "coletivamente": 11014,
  "colhida": 11020,
  "collect": 11050,
  "collectively": 11060,
  "colo": 11072,
  "cology": 11090,
  "colombia": 11091,
  "colon": 11098,
  "colonial": 11110,
  "color": 11126,
  "colored": 11134,
  "colour": 11149,
  "com": 11165,
  "combinant": 11198,
  "combust\u00edvel": 11217,
  "come": 11219,
  "coming": 11300,
  "command": 11318,
  "commerce": 11343,
  "commercial": 11347,
  "common": 11372,
  "communicable": 11384,
  "communication": 11389,
  "communist": 11400,
  "como": 11410,
  "company": 11444,
  "comparativamente": 11463,
  "compare": 11470,
  "compartilhamento": 11491,
  "compatibilidade": 11507,
  "compatible": 11512,
  "competitive": 11555,
  "complete": 11591,
  "compliance": 11614,
  "compliant": 11617,
  "comprehensible": 11702,
  "compulsive": 11746,
  "compulsivo": 11747,
  "computador": 11753,
  "computer": 11762,
  "comunica\u00e7\u00e3o": 11778,
  "comunista": 11793,
  "con": 11804,
  "conceito": 11828,
  "concern": 11865,
  "condiciona": 11973,
  "condicionado": 11976,
  "condicionamento": 11980,
  "condition": 11984,
  "conditioned": 11988,
  "conditioning": 11991,
  "conduct": 12009,
  "cone": 12031,
  "conex\u00e3o": 12048,
  "conf": 12052,
  "confian\u00e7a": 12090,
  "confidence": 12098,
  "confident": 12103,
  "config": 12110,
  "confirm": 12138,
  "conforme": 12174,
  "confortavelmente": 12183,
  "congestionamento": 12216,
  "conhece": 12239,
  "conhecida": 12251,
  "conhecido": 12254,
  "conhecimento": 12258,
  "connect": 12277,
  "connected": 12281,
  "connection": 12286,
  "cons": 12312,
  "consciente": 12324,
  "conscious": 12330,
  "consci\u00eancia": 12321,
  "conselho": 12364,
  "consequentemente": 12385,
  "conservador": 12396,
  "conservative": 12405,
  "consider": 12409,
  "considera": 12412,
  "consistentemente": 12459,
  "construct": 12557,
  "construction": 12562,
  "construed": 12566,
  "constru\u00e7\u00e3o": 12553,
  "consult": 12590,
  "consumer": 12623,
  "consuming": 12635,
  "cont": 12643,
  "conta": 12644,
  "contact": 12654,
  "contained": 12674,
  "containing": 12679,
  "content": 12731,
  "continent": 12757,
  "continente": 12763,
  "continua": 12774,
  "continue": 12795,
  "contra": 12819,
  "contract": 12828,
  "contraindication": 12849,
  "control": 12903,
  "controle": 12919,
  "controlled": 12923,
  "convenientemente": 12966,
  "conventional": 12973,
  "convert": 13002,
  "cooked": 13060,
  "cookies": 13064,
  "cool": 13070,
  "cop": 13106,
  "copter": 13134,
  "copy": 13135,
  "cor": 13143,
  "cord": 13158,
  "cordei": 13164,
  "core": 13171,
  "coreana": 13174,
  "coreano": 13176,
  "corn": 13190,
  "corp": 13213,
  "corpo": 13215,
  "corporate": 13223,
  "corporeal": 13234,
  "corr": 13241,
  "corre": 13242,
  "correct": 13248,
  "corrida": 13301,
  "corrido": 13305,
  "corrupt": 13326,
  "corruption": 13330,
  "corrup\u00e7\u00e3o": 13323,
  "corr\u00eancia": 13272,
  "cortical": 13349,
  "cos": 13355,
  "cost": 13375,
  "costumo": 13398,
  "cote": 13403,
  "cott": 13407,
  "cou": 13412,
  "could": 13418,
  "count": 13431,
  "counter": 13438,
  "country": 13450,
  "couple": 13458,
  "cour": 13466,
  "course": 13473,
  "court": 13478,
  "cover": 13494,
  "cr": 13525,
  "cra": 13530,
  "cracia": 13536,
  "craft": 13544,
  "cranial": 13556,
  "craniana": 13557,
  "cre": 13577,
  "cream": 13581,
  "create": 13584,
  "created": 13588,
  "creation": 13598,
  "creative": 13601,
  "creator": 13607,
  "cred": 13615,
  "credit": 13623,
  "cree": 13639,
  "crete": 13674,
  "crew": 13676,
  "cri": 13679,
  "crim": 13723,
  "criminal": 13730,
  "crist\u00e3": 13753,
  "critical": 13787,
  "crito": 13805,
  "cro": 13807,
  "cron": 13820,
  "cross": 13832,
  "cru": 13852,
  "cruz": 13882,
  "cry": 13892,
  "crypt": 13896,
  "cryptocurrencies": 13900,
  "cr\u00e1tica": 13568,
  "cr\u00e9dito": 13630,
  "cr\u00edtica": 13783,
  "ct": 13912,
  "cta": 13915,
  "cter": 13917,
  "cti": 13918,
  "ctic": 13919,
  "ction": 13920,
  "cto": 13921,
  "ctor": 13922,
  "ctores": 13923,
  "ctu": 13926,
  "cu": 13927,
  "cub": 13934,
  "cuba": 13937,
  "cuidado": 13952,
  "cuisine": 13967,
  "cul": 13974,
  "cula": 13976,
  "cular": 13977,
  "culares": 13978,
  "culo": 13987,
  "culos": 13988,
  "cult": 13995,
  "cultura": 14007,
  "culturais": 14010,
  "cultural": 14012,
  "culture": 14017,
  "cum": 14021,
  "cup": 14045,
  "cur": 14053,
  "cura": 14057,
  "cure": 14069,
  "currence": 14084,
  "currency": 14086,
  "current": 14089,
  "curricular": 14095,
  "curring": 14100,
  "curso": 14104,
  "curta": 14110,
  "cus": 14130,
  "custom": 14142,
  "cut": 14162,
  "cutaneous": 14167,
  "cutting": 14172,
  "cut\u00e2neo": 14166,
  "cy": 14177,
  "cyan": 14181,
  "cycle": 14187,
  "cyclic": 14191,
  "cycling": 14193,
  "cyclo": 14197,
  "cylinder": 14200,
  "cz": 14215,
  "c\u00e1": 8473,
  "c\u00e3o": 8910,
  "c\u00e7\u00e3o": 9455,
  "c\u00e7\u00f5es": 9461,
  "c\u00ea": 9472,
  "c\u00eantrica": 9623,
  "c\u00eantrico": 9624,
  "c\u00edclica": 10266,
  "c\u00edclico": 10267,
  "c\u00f3": 10818,
  "c\u00f3digo": 10896,
  "c\u00f4": 10819,
  "c\u00f5es": 10912,
  "c\u00fa": 13933,
  "d": 14219,
  "da": 14223,
  "dad": 14232,
  "dade": 14240,
  "dados": 14244,
  "dai": 14249,
  "dal": 14262,
  "dale": 14265,
  "dam": 14271,
  "damente": 14283,
  "dan": 14288,
  "dar": 14331,
  "dark": 14338,
  "das": 14348,
  "data": 14357,
  "date": 14368,
  "daughter": 14376,
  "day": 14394,
  "days": 14401,
  "db": 14407,
  "dd": 14413,
  "dded": 14415,
  "dder": 14416,
  "dding": 14417,
  "ddle": 14418,
  "ddy": 14419,
  "de": 14420,
  "dead": 14432,
  "deal": 14440,
  "death": 14455,
  "dec": 14485,
  "decentralization": 14507,
  "decision": 14534,
  "deep": 14630,
  "def": 14639,
  "defense": 14672,
  "defesa": 14682,
  "defined": 14702,
  "definida": 14712,
  "definido": 14715,
  "definition": 14725,
  "defini\u00e7\u00e3o": 14707,
  "defunct": 14741,
  "degree": 14753,
  "deira": 14762,
  "deiras": 14763,
  "deiro": 14764,
  "deixa": 14767,
  "del": 14791,
  "dela": 14795,
  "dell": 14859,
  "della": 14861,
  "dem": 14870,
  "demand": 14873,
  "democracia": 14891,
  "democracy": 14895,
  "democrat": 14898,
  "democrata": 14901,
  "democratic": 14905,
  "den": 14953,
  "denomina": 14964,
  "density": 14981,
  "dent": 14984,
  "dente": 14988,
  "dentro": 14993,
  "depend": 15014,
  "depende": 15016,
  "dependent": 15028,
  "depend\u00eancia": 15022,
  "depois": 15052,
  "depressant": 15075,
  "depth": 15088,
  "der": 15100,
  "derived": 15113,
  "derma": 15118,
  "dermal": 15119,
  "des": 15145,
  "descend": 15209,
  "descendente": 15215,
  "descoberta": 15226,
  "desde": 15294,
  "desenvolvido": 15358,
  "desenvolvimento": 15362,
  "design": 15393,
  "designed": 15407,
  "designs": 15415,
  "desire": 15425,
  "desk": 15435,
  "destin": 15543,
  "destruct": 15573,
  "destructive": 15576,
  "detect": 15627,
  "determinada": 15660,
  "determination": 15669,
  "determined": 15673,
  "deus": 15695,
  "dev": 15706,
  "deve": 15717,
  "develop": 15722,
  "developed": 15726,
  "development": 15734,
  "dex": 15791,
  "dez": 15793,
  "dge": 15806,
  "dging": 15807,
  "dh": 15808,
  "dha": 15810,
  "dhi": 15816,
  "di": 15818,
  "dia": 15825,
  "diab\u00e9tico": 15835,
  "diagnose": 15843,
  "dial": 15860,
  "dian": 15884,
  "diana": 15885,
  "diano": 15889,
  "dic": 15909,
  "dica": 15910,
  "dication": 15916,
  "dico": 15921,
  "dict": 15923,
  "diction": 15928,
  "did": 15932,
  "dida": 15936,
  "didas": 15938,
  "dido": 15942,
  "die": 15943,
  "different": 15984,
  "dig": 16014,
  "diga": 16016,
  "digit": 16031,
  "digital": 16036,
  "dil": 16054,
  "dimensionais": 16074,
  "dimensional": 16075,
  "dimensionamento": 16077,
  "dimento": 16081,
  "din": 16095,
  "dina": 16098,
  "dine": 16114,
  "ding": 16115,
  "dinha": 16116,
  "dinho": 16119,
  "din\u00e2mica": 16104,
  "dio": 16128,
  "dios": 16137,
  "dir": 16154,
  "direct": 16172,
  "directional": 16183,
  "director": 16193,
  "direita": 16205,
  "direito": 16208,
  "diretor": 16221,
  "dis": 16247,
  "disciplina": 16293,
  "disciplinary": 16296,
  "discipline": 16299,
  "discover": 16336,
  "discrimination": 16358,
  "discriminatory": 16362,
  "display": 16459,
  "displaystyle": 16465,
  "disponibilidade": 16473,
  "disponibiliza\u00e7\u00e3o": 16478,
  "dispon\u00edvel": 16483,
  "disproportionate": 16503,
  "dista": 16549,
  "distance": 16551,
  "distinguishable": 16577,
  "distribu": 16604,
  "dit": 16642,
  "dita": 16643,
  "ditado": 16645,
  "dito": 16650,
  "dium": 16653,
  "div": 16657,
  "diz": 16752,
  "di\u00e1cono": 15841,
  "di\u00e7\u00e3o": 15913,
  "di\u00e7\u00f5es": 15922,
  "dl": 16768,
  "dle": 16771,
  "dler": 16772,
  "dling": 16773,
  "dll": 16774,
  "do": 16784,
  "doc": 16798,
  "dock": 16804,
  "doctoral": 16810,
  "document": 16820,
  "doen\u00e7a": 16848,
  "does": 16855,
  "dog": 16861,
  "dol": 16873,
  "dollar": 16878,
  "dom": 16888,
  "domain": 16890,
  "dominated": 16917,
  "dom\u00ednio": 16927,
  "don": 16932,
  "dong": 16947,
  "door": 16959,
  "dor": 16966,
  "dora": 16970,
  "doras": 16971,
  "doravante": 16972,
  "dores": 16973,
  "dorf": 16976,
  "dos": 16990,
  "dose": 16997,
  "dou": 17006,
  "double": 17008,
  "doubt": 17014,
  "douro": 17025,
  "doutorado": 17029,
  "down": 17037,
  "download": 17040,
  "dra": 17066,
  "draw": 17098,
  "dre": 17108,
  "dream": 17111,
  "dress": 17122,
  "dri": 17130,
  "drive": 17143,
  "driven": 17147,
  "driver": 17149,
  "driving": 17154,
  "dro": 17157,
  "droid": 17161,
  "drop": 17165,
  "drug": 17177,
  "dry": 17187,
  "ds": 17193,
  "du": 17198,
  "duc": 17217,
  "duct": 17226,
  "duction": 17228,
  "ductive": 17229,
  "due": 17232,
  "dul": 17238,
  "dumping": 17250,
  "dur": 17272,
  "dura": 17274,
  "dust": 17307,
  "dustrialization": 17310,
  "duto": 17313,
  "dutor": 17314,
  "dutores": 17315,
  "duty": 17316,
  "duzido": 17327,
  "duzindo": 17328,
  "duzir": 17329,
  "duziu": 17330,
  "du\u00e7\u00e3o": 17218,
  "du\u00e7\u00f5es": 17225,
  "dwelling": 17336,
  "dy": 17340,
  "dynamic": 17347,
  "d\u00e1": 14229,
  "d\u00e3o": 14321,
  "d\u00e9": 14426,
  "d\u00ed": 15824,
  "d\u00f3": 16790,
  "e": 17359,
  "ea": 17368,
  "each": 17371,
  "ean": 17381,
  "ear": 17383,
  "earn": 17394,
  "earth": 17403,
  "ease": 17411,
  "east": 17419,
  "eastern": 17424,
  "easy": 17427,
  "eat": 17432,
  "eating": 17436,
  "eau": 17439,
  "eaux": 17440,
  "eb": 17441,
  "ec": 17448,
  "eca": 17452,
  "ece": 17458,
  "ech": 17459,
  "ecia": 17463,
  "ecidas": 17464,
  "ecidos": 17465,
  "ecimento": 17466,
  "eck": 17467,
  "eco": 17474,
  "ecological": 17480,
  "economia": 17490,
  "economic": 17494,
  "economy": 17527,
  "econ\u00f3mico": 17507,
  "econ\u00f4mica": 17499,
  "econ\u00f4mico": 17510,
  "ect": 17539,
  "ection": 17540,
  "ective": 17541,
  "ectomia": 17542,
  "ectomy": 17543,
  "ed": 17551,
  "ede": 17556,
  "edge": 17561,
  "edi": 17565,
  "edit": 17581,
  "editar": 17586,
  "educ": 17608,
  "educa": 17609,
  "educated": 17621,
  "education": 17624,
  "ee": 17636,
  "eem": 17645,
  "een": 17646,
  "eering": 17648,
  "ees": 17649,
  "ef": 17652,
  "eff": 17679,
  "effect": 17681,
  "effective": 17684,
  "efficiency": 17693,
  "efficient": 17696,
  "efici\u00eancia": 17710,
  "efic\u00e1cia": 17705,
  "eg": 17717,
  "ega": 17719,
  "egan": 17721,
  "ego": 17731,
  "egor": 17735,
  "egras": 17736,
  "eh": 17740,
  "ei": 17742,
  "eia": 17746,
  "eight": 17750,
  "eira": 17759,
  "eiras": 17761,
  "eiro": 17762,
  "eiros": 17764,
  "eis": 17765,
  "either": 17769,
  "eixo": 17772,
  "eja": 17776,
  "ejo": 17779,
  "ek": 17780,
  "el": 17782,
  "ela": 17789,
  "elas": 17805,
  "ele": 17820,
  "elecommunication": 17827,
  "elect": 17828,
  "elected": 17830,
  "election": 17832,
  "electric": 17842,
  "electronic": 17859,
  "eletrodom\u00e9sticos": 17919,
  "elha": 17952,
  "eli": 17953,
  "elia": 17955,
  "ell": 17986,
  "ella": 17988,
  "elle": 17989,
  "eller": 17991,
  "elli": 17992,
  "ellini": 17993,
  "ello": 17997,
  "elo": 17998,
  "els": 18007,
  "elves": 18015,
  "el\u00e9trica": 17908,
  "el\u00e9trico": 17914,
  "em": 18017,
  "ema": 18024,
  "email": 18027,
  "emba": 18037,
  "embora": 18081,
  "eme": 18099,
  "ement": 18104,
  "emi": 18123,
  "emia": 18125,
  "emic": 18126,
  "emo": 18154,
  "emon": 18163,
  "emos": 18164,
  "emotional": 18166,
  "emphasis": 18186,
  "empl": 18202,
  "employed": 18205,
  "employment": 18214,
  "emporary": 18221,
  "empregado": 18236,
  "emprego": 18242,
  "empresa": 18247,
  "empt": 18265,
  "en": 18277,
  "ena": 18285,
  "enabled": 18289,
  "enactment": 18295,
  "enbach": 18297,
  "enberg": 18298,
  "enburg": 18299,
  "enca": 18300,
  "ence": 18332,
  "enchant": 18342,
  "encia": 18349,
  "enciais": 18351,
  "encial": 18352,
  "encompassing": 18371,
  "encontro": 18396,
  "ency": 18422,
  "end": 18427,
  "enda": 18432,
  "ende": 18435,
  "ended": 18438,
  "ender": 18441,
  "ending": 18445,
  "endo": 18449,
  "endorf": 18454,
  "ene": 18471,
  "ened": 18473,
  "ener": 18477,
  "energia": 18486,
  "energy": 18493,
  "eng": 18535,
  "engenharia": 18555,
  "engine": 18562,
  "engineering": 18568,
  "enheim": 18599,
  "eni": 18600,
  "enia": 18601,
  "ening": 18605,
  "enko": 18615,
  "enna": 18626,
  "enne": 18627,
  "ennial": 18628,
  "eno": 18629,
  "ens": 18660,
  "ense": 18666,
  "enses": 18668,
  "ensi": 18670,
  "ensible": 18671,
  "ensis": 18686,
  "enstein": 18689,
  "ent": 18698,
  "enta": 18700,
  "entado": 18701,
  "entando": 18704,
  "ente": 18710,
  "entemente": 18713,
  "entendido": 18726,
  "enter": 18731,
  "entes": 18749,
  "enthal": 18751,
  "enti": 18756,
  "ential": 18757,
  "ento": 18772,
  "entos": 18774,
  "entrada": 18777,
  "entre": 18794,
  "entrepreneurship": 18811,
  "entry": 18825,
  "ents": 18828,
  "envelhecimento": 18840,
  "environment": 18867,
  "environmental": 18871,
  "enz": 18902,
  "enza": 18903,
  "eo": 18908,
  "eolithic": 18911,
  "eon": 18912,
  "eous": 18914,
  "ep": 18915,
  "epar": 18921,
  "episcopal": 18942,
  "epto": 18960,
  "equal": 18966,
  "equi": 18977,
  "equil\u00edbrio": 18984,
  "equipped": 19004,
  "equivalent": 19014,
  "er": 19021,
  "era": 19025,
  "erated": 19039,
  "erating": 19040,
  "eration": 19041,
  "erator": 19042,
  "ere": 19045,
  "ered": 19051,
  "erg": 19053,
  "erge": 19054,
  "eri": 19061,
  "eria": 19063,
  "eric": 19065,
  "erie": 19069,
  "ering": 19072,
  "ern": 19076,
  "ero": 19080,
  "eronautical": 19083,
  "eros": 19084,
  "erra": 19090,
  "error": 19104,
  "erry": 19111,
  "ers": 19112,
  "erson": 19114,
  "ert": 19115,
  "ery": 19125,
  "es": 19127,
  "esa": 19133,
  "escala": 19147,
  "escence": 19171,
  "escent": 19172,
  "escente": 19173,
  "esco": 19180,
  "escola": 19187,
  "escolar": 19190,
  "escreve": 19239,
  "escrita": 19250,
  "escu": 19268,
  "ese": 19285,
  "esh": 19299,
  "esis": 19301,
  "esophageal": 19313,
  "esp": 19316,
  "espasmo": 19353,
  "espa\u00e7o": 19326,
  "especial": 19357,
  "especially": 19371,
  "especialmente": 19374,
  "espera": 19412,
  "esportista": 19476,
  "esp\u00edrito": 19455,
  "esquerda": 19507,
  "esquerdista": 19510,
  "essa": 19518,
  "esse": 19526,
  "essential": 19538,
  "est": 19545,
  "esta": 19551,
  "estabelecida": 19569,
  "estabelecido": 19572,
  "establish": 19582,
  "established": 19585,
  "establishment": 19590,
  "estado": 19604,
  "estar": 19631,
  "estatisticamente": 19653,
  "este": 19670,
  "esteem": 19674,
  "ester": 19688,
  "esthetic": 19705,
  "esti": 19706,
  "estima": 19713,
  "estimate": 19720,
  "estimula": 19730,
  "estra": 19766,
  "estrada": 19767,
  "estrado": 19771,
  "estrategicamente": 19794,
  "estre": 19802,
  "estrela": 19810,
  "estrogen": 19824,
  "estrutura": 19827,
  "estruturas": 19834,
  "est\u00e1": 19556,
  "et": 19873,
  "eta": 19878,
  "etas": 19884,
  "etc": 19885,
  "etch": 19887,
  "ete": 19888,
  "eter": 19889,
  "eth": 19901,
  "ethane": 19903,
  "ethanol": 19904,
  "ether": 19906,
  "ethnic": 19919,
  "ethyl": 19924,
  "ethylene": 19925,
  "eti": 19926,
  "etic": 19927,
  "etileno": 19935,
  "eto": 19946,
  "ets": 19947,
  "ett": 19948,
  "etta": 19949,
  "ette": 19950,
  "etti": 19951,
  "ettle": 19952,
  "etto": 19953,
  "etz": 19954,
  "eu": 19955,
  "eur": 19973,
  "euro": 19981,
  "europa": 19986,
  "europe": 19991,
  "europeia": 19999,
  "eus": 20022,
  "ev": 20025,
  "eva": 20027,
  "evaluate": 20036,
  "evangeli": 20045,
  "eve": 20064,
  "even": 20068,
  "ever": 20088,
  "every": 20096,
  "everything": 20108,
  "evi": 20114,
  "evich": 20115,
  "evident": 20123,
  "evil": 20130,
  "evo": 20142,
  "evolution": 20161,
  "evolu\u00e7\u00e3o": 20148,
  "evolving": 20169,
  "evsky": 20172,
  "ew": 20173,
  "ex": 20175,
  "exact": 20185,
  "example": 20219,
  "excepcionalmente": 20268,
  "except": 20270,
  "exceto": 20290,
  "exchange": 20293,
  "excluding": 20311,
  "excluindo": 20318,
  "exclusive": 20327,
  "exe": 20347,
  "executivo": 20372,
  "exemplo": 20382,
  "existe": 20463,
  "existence": 20470,
  "existent": 20474,
  "existente": 20475,
  "existing": 20483,
  "expand": 20507,
  "expected": 20535,
  "experience": 20555,
  "experi\u00eancia": 20561,
  "expert": 20592,
  "explanatory": 20617,
  "explica": 20618,
  "exploit": 20642,
  "exponencialmente": 20679,
  "export": 20684,
  "exportadores": 20693,
  "express": 20718,
  "expression": 20734,
  "ext": 20755,
  "extra": 20806,
  "extraterrestrial": 20831,
  "ey": 20854,
  "eye": 20855,
  "eyed": 20859,
  "ez": 20864,
  "eza": 20866,
  "f": 20870,
  "fa": 20874,
  "fab": 20883,
  "fabrica": 20889,
  "face": 20921,
  "facial": 20933,
  "facil": 20936,
  "facing": 20961,
  "fact": 20966,
  "factor": 20972,
  "factory": 20978,
  "fair": 21008,
  "faith": 21018,
  "fal": 21030,
  "falante": 21042,
  "fall": 21062,
  "false": 21073,
  "family": 21111,
  "famous": 21121,
  "fam\u00edlia": 21096,
  "fan": 21125,
  "far": 21151,
  "fare": 21160,
  "farma": 21172,
  "fascist": 21204,
  "fascista": 21207,
  "fashioned": 21214,
  "fast": 21216,
  "fat": 21224,
  "father": 21232,
  "favor": 21257,
  "fax": 21283,
  "faz": 21287,
  "fazendo": 21299,
  "fazer": 21302,
  "fe": 21314,
  "feat": 21334,
  "fec": 21349,
  "fect": 21365,
  "fec\u00e7\u00f5es": 21350,
  "fed": 21367,
  "feed": 21384,
  "feeding": 21389,
  "feel": 21392,
  "fei": 21401,
  "feira": 21406,
  "feita": 21410,
  "feito": 21416,
  "fel": 21421,
  "feld": 21422,
  "fell": 21437,
  "female": 21446,
  "fen": 21464,
  "feng": 21470,
  "fer": 21478,
  "fere": 21482,
  "ferenc": 21483,
  "ferential": 21485,
  "feri": 21487,
  "ferido": 21495,
  "ferramenta": 21516,
  "ferro": 21527,
  "ferrous": 21530,
  "fer\u00eancia": 21484,
  "fest": 21550,
  "fet": 21563,
  "ff": 21581,
  "ffa": 21583,
  "ffe": 21584,
  "ffer": 21585,
  "ffi": 21586,
  "fficial": 21587,
  "ffle": 21588,
  "fi": 21589,
  "fia": 21595,
  "fiber": 21604,
  "fic": 21617,
  "fica": 21619,
  "fici": 21643,
  "ficiente": 21644,
  "ficio": 21645,
  "fico": 21646,
  "fiction": 21653,
  "fidelity": 21660,
  "field": 21665,
  "fifth": 21677,
  "fight": 21685,
  "fighter": 21688,
  "fighting": 21692,
  "figur": 21696,
  "figura": 21697,
  "figure": 21703,
  "fil": 21712,
  "fila": 21715,
  "file": 21720,
  "files": 21728,
  "filho": 21734,
  "filia": 21742,
  "fill": 21753,
  "filled": 21756,
  "film": 21759,
  "filme": 21768,
  "filter": 21786,
  "fim": 21801,
  "fin": 21804,
  "fina": 21809,
  "final": 21812,
  "finance": 21827,
  "financial": 21842,
  "financiamento": 21846,
  "financing": 21850,
  "find": 21855,
  "finder": 21859,
  "fine": 21864,
  "finger": 21869,
  "fini": 21876,
  "fir": 21903,
  "fire": 21904,
  "firm": 21917,
  "firma": 21920,
  "firme": 21922,
  "first": 21930,
  "fish": 21941,
  "fisi": 21952,
  "fit": 21970,
  "fitofarmac\u00eautico": 21978,
  "five": 21985,
  "fix": 21989,
  "fixa": 21992,
  "fjord": 22017,
  "fl": 22018,
  "flame": 22031,
  "flammable": 22037,
  "flat": 22050,
  "flationary": 22053,
  "flats": 22054,
  "flect": 22068,
  "fledged": 22070,
  "flet": 22078,
  "flex": 22082,
  "fli": 22093,
  "flight": 22096,
  "flo": 22107,
  "floor": 22118,
  "flop": 22123,
  "flor": 22124,
  "floresta": 22136,
  "flow": 22149,
  "flower": 22152,
  "flu": 22162,
  "fluoro": 22182,
  "flu\u00eancia": 22168,
  "fly": 22192,
  "fm": 22199,
  "fo": 22203,
  "fobia": 22211,
  "focus": 22222,
  "focused": 22225,
  "fogo": 22238,
  "foi": 22244,
  "fol": 22249,
  "fold": 22253,
  "foli": 22268,
  "folic": 22269,
  "follow": 22278,
  "fon": 22295,
  "fone": 22297,
  "fonia": 22298,
  "font": 22300,
  "fonte": 22304,
  "food": 22310,
  "foot": 22321,
  "for": 22332,
  "fora": 22338,
  "force": 22357,
  "ford": 22366,
  "fore": 22368,
  "foreign": 22378,
  "forest": 22391,
  "form": 22420,
  "forma": 22425,
  "formado": 22433,
  "formal": 22437,
  "format": 22448,
  "formed": 22460,
  "former": 22462,
  "formerly": 22465,
  "forming": 22470,
  "fornece": 22493,
  "fort": 22521,
  "forte": 22530,
  "forward": 22558,
  "for\u00e7a": 22347,
  "fos": 22562,
  "fosfato": 22563,
  "foto": 22577,
  "found": 22598,
  "founded": 22604,
  "founder": 22607,
  "four": 22614,
  "fox": 22622,
  "fr": 22628,
  "fra": 22634,
  "frac": 22638,
  "fraction": 22646,
  "frag": 22649,
  "frame": 22670,
  "fran": 22678,
  "franc": 22681,
  "fraud": 22730,
  "fre": 22738,
  "free": 22748,
  "freedom": 22754,
  "frequency": 22785,
  "frequent": 22788,
  "fresh": 22806,
  "fri": 22815,
  "frica": 22821,
  "friend": 22830,
  "friendly": 22834,
  "fro": 22852,
  "from": 22856,
  "front": 22861,
  "fruit": 22885,
  "ft": 22905,
  "fu": 22911,
  "fuck": 22916,
  "fuel": 22921,
  "ful": 22939,
  "full": 22948,
  "fully": 22955,
  "fulness": 22958,
  "fun": 22965,
  "funcion\u00e1rio": 22985,
  "function": 22993,
  "functional": 22996,
  "fund": 23004,
  "fundada": 23012,
  "fundador": 23016,
  "funded": 23033,
  "fur": 23057,
  "fura": 23060,
  "fused": 23084,
  "fusion": 23085,
  "fuso": 23088,
  "fus\u00e3o": 23081,
  "f\u00e1": 20880,
  "f\u00e9": 21320,
  "f\u00edsica": 21953,
  "f\u00edsico": 21958,
  "f\u00f3bico": 22212,
  "f\u00f3lio": 22272,
  "g": 23107,
  "ga": 23111,
  "gada": 23126,
  "gado": 23130,
  "gal": 23143,
  "gam": 23181,
  "game": 23191,
  "gami": 23200,
  "gan": 23204,
  "gang": 23210,
  "gar": 23232,
  "gara": 23236,
  "gard": 23262,
  "garde": 23264,
  "garra": 23283,
  "garrafa": 23284,
  "gas": 23293,
  "gastrointestinal": 23316,
  "gata": 23320,
  "gate": 23321,
  "gau": 23339,
  "gawa": 23346,
  "gay": 23347,
  "ge": 23362,
  "gear": 23369,
  "ged": 23373,
  "gee": 23374,
  "gel": 23376,
  "gem": 23387,
  "gen": 23394,
  "gena": 23399,
  "gender": 23400,
  "gene": 23403,
  "genera": 23411,
  "general": 23414,
  "generated": 23426,
  "generating": 23429,
  "generation": 23431,
  "genesis": 23456,
  "genetic": 23461,
  "genic": 23477,
  "gens": 23497,
  "gent": 23498,
  "gente": 23500,
  "genzia": 23521,
  "ger": 23560,
  "geral": 23577,
  "geralmente": 23583,
  "ges": 23617,
  "gest": 23619,
  "gestational": 23626,
  "gest\u00e3o": 23622,
  "get": 23634,
  "gg": 23646,
  "gger": 23648,
  "ggi": 23649,
  "ggins": 23650,
  "ggio": 23651,
  "ggle": 23652,
  "ggy": 23653,
  "gh": 23654,
  "gha": 23656,
  "ghi": 23661,
  "gi": 23666,
  "gia": 23672,
  "gic": 23679,
  "gica": 23680,
  "gida": 23681,
  "gido": 23683,
  "gie": 23684,
  "gift": 23687,
  "gil": 23701,
  "gill": 23705,
  "gin": 23707,
  "gina": 23709,
  "gine": 23712,
  "ging": 23713,
  "gio": 23716,
  "gios": 23719,
  "gir": 23721,
  "girl": 23729,
  "git": 23738,
  "give": 23743,
  "given": 23747,
  "giver": 23751,
  "giving": 23753,
  "gl": 23756,
  "gla": 23761,
  "glass": 23778,
  "gle": 23784,
  "gli": 23787,
  "glia": 23789,
  "glic": 23790,
  "glifo": 23795,
  "glio": 23798,
  "glo": 23800,
  "global": 23804,
  "glomer": 23818,
  "glu": 23838,
  "glut": 23844,
  "glycemic": 23850,
  "glyco": 23851,
  "glyph": 23852,
  "gma": 23856,
  "gmail": 23857,
  "gn": 23862,
  "gna": 23864,
  "gnac": 23865,
  "gne": 23866,
  "gni": 23867,
  "gno": 23868,
  "gnosis": 23869,
  "gnostic": 23870,
  "gn\u00f3stico": 23872,
  "go": 23874,
  "god": 23886,
  "going": 23899,
  "gol": 23902,
  "gold": 23905,
  "golf": 23912,
  "gon": 23925,
  "gong": 23929,
  "good": 23934,
  "gor": 23947,
  "gora": 23949,
  "gos": 23961,
  "got": 23986,
  "gou": 23998,
  "govern": 24000,
  "governamentais": 24010,
  "government": 24023,
  "governmental": 24027,
  "governo": 24031,
  "gr": 24046,
  "gra": 24052,
  "grad": 24073,
  "grade": 24075,
  "grado": 24082,
  "gradua": 24084,
  "graduate": 24094,
  "gradua\u00e7\u00e3o": 24085,
  "graf": 24101,
  "grafia": 24104,
  "grafo": 24113,
  "grain": 24117,
  "gram": 24121,
  "grama": 24124,
  "grand": 24137,
  "grande": 24142,
  "graph": 24170,
  "graphic": 24174,
  "graphy": 24180,
  "grass": 24182,
  "gratuito": 24204,
  "grau": 24208,
  "gravado": 24220,
  "grave": 24225,
  "gravity": 24239,
  "gra\u00e7a": 24062,
  "gre": 24249,
  "great": 24253,
  "greece": 24266,
  "green": 24273,
  "grega": 24284,
  "gren": 24294,
  "gres": 24298,
  "gress": 24299,
  "gri": 24304,
  "grid": 24307,
  "gro": 24334,
  "ground": 24351,
  "group": 24358,
  "growing": 24369,
  "grown": 24372,
  "growth": 24375,
  "gru": 24378,
  "grup": 24383,
  "grupo": 24384,
  "gr\u00e1fica": 24105,
  "gr\u00e1ficas": 24107,
  "gr\u00e1fico": 24108,
  "gr\u00e1tis": 24193,
  "gs": 24391,
  "gu": 24398,
  "gua": 24404,
  "guan": 24411,
  "guard": 24428,
  "guarda": 24432,
  "gue": 24453,
  "gueira": 24455,
  "gueiro": 24456,
  "guem": 24457,
  "guer": 24458,
  "guerra": 24461,
  "gues": 24473,
  "guez": 24483,
  "gui": 24485,
  "guia": 24489,
  "guide": 24500,
  "guin": 24519,
  "gul": 24531,
  "gun": 24537,
  "gur": 24542,
  "gura": 24544,
  "gus": 24547,
  "gy": 24559,
  "g\u00e1": 23117,
  "g\u00e3o": 23228,
  "g\u00e9": 23368,
  "g\u00e9ni": 23474,
  "g\u00e9nico": 23479,
  "g\u00e9nio": 23482,
  "g\u00eanese": 23455,
  "g\u00eani": 23475,
  "g\u00eanica": 23478,
  "g\u00eanico": 23480,
  "g\u00eanicos": 23481,
  "g\u00eanio": 23483,
  "h": 24565,
  "hPa": 25667,
  "ha": 24569,
  "hab": 24579,
  "habi": 24581,
  "habit": 24593,
  "hack": 24615,
  "had": 24622,
  "hai": 24630,
  "hak": 24648,
  "hal": 24649,
  "half": 24653,
  "hall": 24658,
  "ham": 24670,
  "hampton": 24688,
  "han": 24690,
  "hana": 24693,
  "hand": 24694,
  "handed": 24698,
  "hang": 24716,
  "hani": 24721,
  "hap": 24732,
  "happy": 24743,
  "har": 24747,
  "hara": 24751,
  "hard": 24759,
  "hari": 24773,
  "harm": 24776,
  "hart": 24803,
  "has": 24812,
  "hat": 24824,
  "haul": 24835,
  "haus": 24839,
  "hausen": 24840,
  "hav": 24841,
  "have": 24844,
  "haven": 24849,
  "having": 24861,
  "hawk": 24868,
  "he": 24884,
  "head": 24890,
  "headed": 24895,
  "health": 24914,
  "hear": 24924,
  "heart": 24930,
  "hearted": 24934,
  "heat": 24937,
  "heavy": 24955,
  "hee": 24971,
  "hei": 24975,
  "heim": 24983,
  "hel": 24987,
  "held": 24989,
  "help": 25011,
  "hem": 25022,
  "hen": 25034,
  "her": 25050,
  "here": 25073,
  "hereinafter": 25084,
  "hero": 25093,
  "her\u00f3i": 25100,
  "hey": 25125,
  "hi": 25133,
  "hid": 25142,
  "hidratado": 25151,
  "hidro": 25159,
  "hidroxi": 25167,
  "high": 25174,
  "hijiazhuang": 25198,
  "hik": 25199,
  "hil": 25203,
  "hill": 25206,
  "him": 25214,
  "hin": 25223,
  "hine": 25232,
  "hip": 25237,
  "hiper": 25240,
  "hir": 25261,
  "hiro": 25266,
  "his": 25269,
  "historic": 25291,
  "history": 25307,
  "hist\u00f3ria": 25281,
  "hist\u00f3rico": 25302,
  "hit": 25311,
  "hl": 25321,
  "hm": 25323,
  "hmm": 25324,
  "hn": 25326,
  "hnom": 25327,
  "ho": 25328,
  "hoe": 25343,
  "hof": 25344,
  "hol": 25352,
  "hold": 25360,
  "holder": 25363,
  "holders": 25366,
  "holding": 25368,
  "hole": 25373,
  "holm": 25389,
  "hom": 25400,
  "home": 25404,
  "homem": 25412,
  "homossexualidade": 25447,
  "hon": 25448,
  "hong": 25465,
  "honorary": 25472,
  "hoo": 25482,
  "hood": 25483,
  "hop": 25490,
  "hopper": 25503,
  "hopping": 25504,
  "hor": 25506,
  "hora": 25508,
  "horn": 25533,
  "horse": 25545,
  "hosp": 25554,
  "hospitable": 25565,
  "hospital": 25567,
  "host": 25578,
  "hot": 25600,
  "hotel": 25608,
  "hotels": 25615,
  "hotmail": 25620,
  "hou": 25623,
  "hound": 25625,
  "hour": 25626,
  "house": 25633,
  "how": 25654,
  "hr": 25672,
  "hra": 25675,
  "hri": 25676,
  "html": 25684,
  "http": 25686,
  "hu": 25690,
  "hua": 25696,
  "huang": 25698,
  "hub": 25701,
  "hui": 25719,
  "hum": 25724,
  "human": 25727,
  "humb": 25751,
  "hun": 25772,
  "hunter": 25791,
  "hur": 25798,
  "hurst": 25806,
  "husband": 25811,
  "hy": 25818,
  "hya": 25822,
  "hydr": 25828,
  "hydrate": 25830,
  "hydro": 25835,
  "hydroxy": 25844,
  "hyper": 25852,
  "hypersensitivity": 25856,
  "h\u00e1": 24575,
  "i": 25873,
  "ia": 25878,
  "iac": 25883,
  "iah": 25887,
  "iais": 25888,
  "ial": 25889,
  "iam": 25890,
  "ian": 25892,
  "iana": 25895,
  "ianas": 25896,
  "ianismo": 25897,
  "iano": 25898,
  "ianos": 25899,
  "ians": 25900,
  "ias": 25902,
  "iasis": 25904,
  "iated": 25907,
  "iatric": 25908,
  "ib": 25909,
  "iba": 25912,
  "ibe": 25913,
  "iber": 25914,
  "ibi": 25919,
  "ibid": 25920,
  "ibilidade": 25921,
  "ibility": 25922,
  "ible": 25926,
  "ibn": 25928,
  "ibo": 25931,
  "ibu": 25934,
  "ic": 25935,
  "ica": 25938,
  "ical": 25941,
  "ically": 25943,
  "icamente": 25944,
  "icas": 25946,
  "ice": 25948,
  "ich": 25956,
  "iche": 25957,
  "ichi": 25958,
  "icht": 25959,
  "ici": 25960,
  "icia": 25962,
  "icidade": 25964,
  "icide": 25965,
  "icina": 25966,
  "icip": 25968,
  "ick": 25969,
  "icle": 25970,
  "ico": 25972,
  "icon": 25978,
  "icos": 25987,
  "ics": 25989,
  "icular": 25994,
  "icultores": 25996,
  "id": 25998,
  "ida": 26001,
  "idad": 26004,
  "idade": 26005,
  "idades": 26009,
  "idae": 26011,
  "idal": 26013,
  "idas": 26015,
  "idchart": 26016,
  "ide": 26017,
  "ident": 26037,
  "identifica": 26048,
  "identified": 26069,
  "identifying": 26077,
  "ider": 26090,
  "ides": 26091,
  "idge": 26092,
  "idi": 26093,
  "idina": 26096,
  "idine": 26097,
  "idio": 26098,
  "idium": 26106,
  "ido": 26109,
  "idos": 26120,
  "idra": 26125,
  "id\u00e3o": 26014,
  "ie": 26128,
  "ied": 26131,
  "iedade": 26132,
  "iel": 26134,
  "ien": 26138,
  "ience": 26139,
  "ienne": 26140,
  "ient": 26141,
  "ier": 26142,
  "iers": 26143,
  "ies": 26144,
  "iest": 26146,
  "ieux": 26147,
  "if": 26148,
  "ifa": 26154,
  "ife": 26155,
  "iff": 26158,
  "ifiable": 26160,
  "ific": 26161,
  "ificada": 26166,
  "ificado": 26167,
  "ificar": 26168,
  "ification": 26169,
  "ifica\u00e7\u00e3o": 26164,
  "ifica\u00e7\u00f5es": 26165,
  "ificou": 26170,
  "ified": 26171,
  "ifier": 26172,
  "ifies": 26173,
  "ifique": 26174,
  "iform": 26175,
  "iforme": 26176,
  "ify": 26179,
  "ifying": 26180,
  "if\u00edc": 26163,
  "ig": 26181,
  "iga": 26184,
  "igan": 26185,
  "igation": 26186,
  "igen": 26187,
  "iger": 26188,
  "igger": 26189,
  "igh": 26190,
  "ight": 26191,
  "igi": 26193,
  "iglia": 26194,
  "ign": 26195,
  "ignan": 26197,
  "igne": 26198,
  "igno": 26202,
  "igny": 26218,
  "igo": 26219,
  "igu": 26225,
  "igue": 26234,
  "ii": 26236,
  "iii": 26240,
  "ij": 26244,
  "ija": 26245,
  "ijk": 26246,
  "ijn": 26247,
  "ik": 26248,
  "ika": 26249,
  "ike": 26250,
  "iki": 26252,
  "iko": 26253,
  "il": 26254,
  "ila": 26258,
  "ilateral": 26259,
  "ile": 26260,
  "ilha": 26265,
  "ilhas": 26268,
  "ilho": 26271,
  "ili": 26272,
  "ilian": 26275,
  "ilidade": 26279,
  "iling": 26282,
  "ilities": 26284,
  "ility": 26285,
  "ill": 26286,
  "illa": 26288,
  "ille": 26289,
  "iller": 26294,
  "illi": 26295,
  "illian": 26296,
  "illion": 26299,
  "illo": 26304,
  "illon": 26305,
  "ilo": 26326,
  "ilu": 26327,
  "ily": 26347,
  "im": 26348,
  "ima": 26354,
  "image": 26358,
  "imagem": 26362,
  "imagine": 26384,
  "imat": 26396,
  "imation": 26397,
  "imba": 26398,
  "ime": 26403,
  "imento": 26412,
  "imi": 26419,
  "immer": 26439,
  "immu": 26457,
  "imo": 26464,
  "imon": 26470,
  "imos": 26474,
  "imp": 26478,
  "impact": 26483,
  "imperialista": 26535,
  "implant": 26546,
  "important": 26610,
  "imposed": 26628,
  "in": 26727,
  "ina": 26734,
  "inadvertidamente": 26751,
  "inal": 26752,
  "inas": 26760,
  "inate": 26761,
  "ination": 26762,
  "inator": 26764,
  "incentiv": 26795,
  "inch": 26810,
  "including": 26838,
  "incluindo": 26852,
  "inclusive": 26863,
  "income": 26868,
  "inconstitucional": 26897,
  "increasing": 26930,
  "ind": 26955,
  "independente": 26975,
  "inder": 26980,
  "indica": 27002,
  "individual": 27067,
  "indo": 27080,
  "induced": 27092,
  "industrial": 27103,
  "industrializa\u00e7\u00e3o": 27106,
  "industry": 27112,
  "ine": 27119,
  "ines": 27137,
  "iness": 27143,
  "inf": 27156,
  "infect": 27184,
  "infected": 27192,
  "infection": 27194,
  "infec\u00e7\u00e3o": 27177,
  "inflamat\u00f3ria": 27236,
  "inflamat\u00f3rio": 27237,
  "inflammatory": 27240,
  "influence": 27251,
  "info": 27271,
  "information": 27299,
  "informa\u00e7\u00f5es": 27284,
  "informed": 27309,
  "ing": 27336,
  "inga": 27338,
  "ingen": 27339,
  "inger": 27343,
  "ingham": 27349,
  "ingl\u00eas": 27351,
  "ings": 27369,
  "ington": 27370,
  "inha": 27371,
  "inhas": 27379,
  "inho": 27388,
  "inhos": 27389,
  "inh\u00e3o": 27378,
  "ini": 27390,
  "inimigo": 27427,
  "ink": 27471,
  "inn": 27473,
  "inner": 27476,
  "ino": 27492,
  "inos": 27500,
  "inous": 27501,
  "ins": 27527,
  "inski": 27593,
  "insky": 27594,
  "inspired": 27628,
  "insta": 27634,
  "instalado": 27647,
  "instala\u00e7\u00e3o": 27641,
  "install": 27653,
  "instantaneamente": 27675,
  "institut": 27698,
  "institutional": 27706,
  "int": 27763,
  "integra": 27771,
  "integrated": 27792,
  "integration": 27797,
  "intelligence": 27822,
  "intelligent": 27825,
  "intencionado": 27831,
  "intencionalmente": 27834,
  "intensity": 27849,
  "intensive": 27852,
  "inter": 27862,
  "interdepend\u00eancia": 27905,
  "interdisciplinar": 27907,
  "interesse": 27919,
  "interest": 27923,
  "international": 27973,
  "interoperability": 27986,
  "interpreta": 27991,
  "interven": 28030,
  "into": 28062,
  "introduction": 28093,
  "inus": 28123,
  "invasive": 28145,
  "invest": 28179,
  "investimento": 28214,
  "investment": 28223,
  "io": 28258,
  "iology": 28264,
  "ion": 28265,
  "ional": 28268,
  "ione": 28269,
  "ions": 28270,
  "ior": 28274,
  "ios": 28277,
  "iosa": 28279,
  "ioso": 28280,
  "ious": 28283,
  "ip": 28285,
  "ipe": 28291,
  "ipher": 28292,
  "ipp": 28295,
  "ipping": 28296,
  "iq": 28298,
  "ique": 28300,
  "ir": 28301,
  "ira": 28306,
  "iras": 28326,
  "ire": 28327,
  "iri": 28334,
  "irm\u00e3o": 28347,
  "iro": 28353,
  "iron": 28354,
  "iros": 28363,
  "is": 28397,
  "isa": 28403,
  "isation": 28413,
  "isch": 28415,
  "ische": 28416,
  "isco": 28417,
  "iscus": 28418,
  "ise": 28419,
  "ised": 28421,
  "iser": 28427,
  "ises": 28428,
  "ish": 28429,
  "isha": 28431,
  "ishi": 28432,
  "isi": 28434,
  "ising": 28436,
  "ism": 28460,
  "ismo": 28462,
  "iso": 28467,
  "ison": 28481,
  "issa": 28496,
  "isse": 28497,
  "issi": 28498,
  "isso": 28501,
  "isson": 28505,
  "issue": 28507,
  "issy": 28515,
  "ist": 28516,
  "ista": 28518,
  "istan": 28521,
  "istas": 28523,
  "iste": 28524,
  "ister": 28525,
  "isti": 28526,
  "istic": 28527,
  "isticamente": 28529,
  "isto": 28532,
  "ists": 28536,
  "it": 28537,
  "ita": 28543,
  "itar": 28559,
  "itarian": 28560,
  "itas": 28561,
  "itch": 28562,
  "ite": 28563,
  "iter": 28572,
  "ites": 28573,
  "ith": 28574,
  "iti": 28575,
  "itic": 28576,
  "ities": 28579,
  "ition": 28583,
  "itis": 28584,
  "itive": 28585,
  "ito": 28586,
  "itos": 28588,
  "its": 28589,
  "itt": 28593,
  "itter": 28594,
  "itu": 28595,
  "itude": 28597,
  "ity": 28599,
  "itz": 28601,
  "it\u00e9": 28565,
  "iu": 28602,
  "ium": 28605,
  "ius": 28606,
  "iv": 28607,
  "iva": 28610,
  "ivas": 28613,
  "ive": 28614,
  "ivelmente": 28618,
  "iver": 28619,
  "ivi": 28620,
  "ividade": 28621,
  "iving": 28622,
  "ivism": 28623,
  "ivist": 28624,
  "ivity": 28625,
  "ivo": 28626,
  "ix": 28630,
  "ixe": 28633,
  "iya": 28634,
  "iyah": 28635,
  "iye": 28636,
  "iz": 28637,
  "iza": 28638,
  "izada": 28643,
  "izadas": 28644,
  "izado": 28645,
  "izador": 28646,
  "izados": 28647,
  "izamos": 28648,
  "izando": 28649,
  "izante": 28650,
  "izar": 28651,
  "izaram": 28652,
  "ization": 28653,
  "iza\u00e7\u00e3o": 28641,
  "iza\u00e7\u00f5es": 28642,
  "ize": 28656,
  "ized": 28657,
  "izem": 28658,
  "izer": 28659,
  "izes": 28660,
  "izing": 28661,
  "izo": 28662,
  "izou": 28663,
  "izz": 28664,
  "iz\u00e1": 28640,
  "iz\u00e1veis": 28654,
  "iz\u00e1vel": 28655,
  "i\u00e3o": 25901,
  "i\u00e7a": 25940,
  "i\u00e7o": 25975,
  "i\u00e7\u00f5es": 25976,
  "j": 28665,
  "ja": 28669,
  "jack": 28682,
  "jah": 28699,
  "jam": 28705,
  "jan": 28714,
  "jar": 28741,
  "jay": 28763,
  "je": 28767,
  "ject": 28776,
  "jei": 28785,
  "jer": 28799,
  "jet": 28820,
  "ji": 28838,
  "jia": 28840,
  "jiang": 28842,
  "jima": 28851,
  "jin": 28853,
  "jing": 28855,
  "jk": 28858,
  "jo": 28859,
  "job": 28872,
  "jogador": 28889,
  "jogo": 28899,
  "join": 28917,
  "jon": 28932,
  "jornal": 28947,
  "jou": 28962,
  "jour": 28963,
  "joy": 28977,
  "ju": 28988,
  "judgment": 29020,
  "judicial": 29026,
  "jun": 29071,
  "junta": 29091,
  "junto": 29102,
  "just": 29136,
  "justice": 29145,
  "j\u00e1": 28675,
  "k": 29169,
  "ka": 29173,
  "kai": 29182,
  "kal": 29185,
  "kan": 29192,
  "kar": 29200,
  "kara": 29203,
  "kash": 29212,
  "kata": 29216,
  "kawa": 29226,
  "kay": 29228,
  "ke": 29237,
  "ked": 29241,
  "keep": 29244,
  "keeper": 29248,
  "keeping": 29249,
  "kel": 29254,
  "ken": 29259,
  "ker": 29270,
  "kers": 29276,
  "kes": 29277,
  "ket": 29278,
  "key": 29284,
  "kg": 29296,
  "kh": 29299,
  "kha": 29301,
  "khan": 29305,
  "ki": 29309,
  "kick": 29314,
  "kie": 29329,
  "kill": 29332,
  "killer": 29336,
  "kilometre": 29347,
  "kin": 29350,
  "kind": 29353,
  "king": 29361,
  "kins": 29371,
  "kirch": 29375,
  "kirche": 29376,
  "kirk": 29377,
  "kit": 29384,
  "kk": 29396,
  "kka": 29398,
  "kle": 29401,
  "km": 29405,
  "knit": 29417,
  "know": 29425,
  "knowledge": 29433,
  "known": 29437,
  "ko": 29442,
  "kol": 29450,
  "kon": 29454,
  "kop": 29457,
  "kou": 29465,
  "kov": 29466,
  "kowski": 29467,
  "kra": 29469,
  "ks": 29483,
  "kt": 29485,
  "ku": 29486,
  "kun": 29490,
  "kw": 29499,
  "ky": 29503,
  "l": 29510,
  "la": 29514,
  "lab": 29524,
  "label": 29528,
  "labor": 29538,
  "lac": 29555,
  "lace": 29559,
  "lack": 29562,
  "lada": 29576,
  "lado": 29581,
  "lados": 29583,
  "lag": 29590,
  "lagem": 29593,
  "lago": 29594,
  "lah": 29604,
  "lai": 29606,
  "laid": 29607,
  "lake": 29610,
  "lam": 29614,
  "lama": 29616,
  "lamento": 29628,
  "lamina": 29631,
  "lamp": 29635,
  "lan": 29642,
  "lance": 29661,
  "land": 29666,
  "lander": 29672,
  "lands": 29683,
  "landscape": 29685,
  "lane": 29690,
  "lang": 29693,
  "lange": 29695,
  "language": 29696,
  "lant": 29702,
  "lan\u00e7ado": 29650,
  "lap": 29708,
  "lapping": 29711,
  "lapse": 29712,
  "lar": 29715,
  "laranja": 29720,
  "lares": 29724,
  "large": 29728,
  "largest": 29733,
  "las": 29740,
  "lash": 29745,
  "last": 29746,
  "lasting": 29751,
  "lat": 29754,
  "lata": 29756,
  "late": 29759,
  "lated": 29762,
  "later": 29768,
  "lateral": 29772,
  "latinas": 29782,
  "lation": 29785,
  "lator": 29787,
  "lau": 29792,
  "laughs": 29799,
  "laughter": 29800,
  "launch": 29803,
  "lav": 29819,
  "lava": 29821,
  "law": 29835,
  "lax": 29847,
  "lay": 29849,
  "layer": 29852,
  "la\u00e7\u00e3o": 29558,
  "lb": 29864,
  "lbeit": 29865,
  "lberg": 29866,
  "lbert": 29867,
  "lc": 29868,
  "lco": 29871,
  "ld": 29872,
  "lded": 29875,
  "lder": 29876,
  "le": 29878,
  "lea": 29888,
  "leader": 29891,
  "leading": 29898,
  "leaf": 29902,
  "league": 29906,
  "lean": 29915,
  "learn": 29921,
  "learning": 29927,
  "lec": 29945,
  "lecommunications": 29947,
  "led": 29952,
  "lee": 29958,
  "left": 29961,
  "leg": 29965,
  "legal": 29972,
  "legged": 29987,
  "lei": 30018,
  "leigh": 30027,
  "leiro": 30033,
  "lem": 30045,
  "lement": 30064,
  "len": 30068,
  "lena": 30070,
  "lene": 30082,
  "length": 30083,
  "lent": 30096,
  "lente": 30101,
  "lento": 30104,
  "leo": 30106,
  "lep": 30118,
  "ler": 30121,
  "les": 30125,
  "less": 30136,
  "lessly": 30141,
  "lessness": 30142,
  "let": 30150,
  "leta": 30155,
  "leto": 30158,
  "lets": 30164,
  "lette": 30165,
  "letter": 30166,
  "leu": 30174,
  "leucina": 30177,
  "lev": 30179,
  "leva": 30182,
  "level": 30212,
  "lex": 30233,
  "lexandr": 30236,
  "ley": 30238,
  "lez": 30239,
  "lf": 30240,
  "lga": 30244,
  "lgar": 30245,
  "lguns": 30248,
  "lh": 30250,
  "lha": 30252,
  "lhar": 30254,
  "lhas": 30255,
  "lhe": 30256,
  "lhes": 30259,
  "lho": 30261,
  "lhos": 30263,
  "lh\u00e3o": 30253,
  "lh\u00f5es": 30262,
  "li": 30264,
  "lia": 30271,
  "lian": 30279,
  "lib": 30281,
  "liber": 30287,
  "liberal": 30297,
  "liberando": 30304,
  "liberdade": 30311,
  "libra": 30332,
  "lic": 30342,
  "lica": 30344,
  "lice": 30346,
  "license": 30363,
  "lich": 30371,
  "licious": 30372,
  "licit": 30373,
  "lick": 30376,
  "lico": 30378,
  "lid": 30380,
  "lida": 30382,
  "lidade": 30384,
  "lie": 30406,
  "lier": 30411,
  "lies": 30412,
  "liest": 30414,
  "life": 30417,
  "lift": 30428,
  "lifting": 30432,
  "lig": 30435,
  "liga": 30438,
  "ligar": 30452,
  "light": 30458,
  "ligible": 30472,
  "lik": 30476,
  "like": 30477,
  "lim": 30492,
  "lima": 30495,
  "liment": 30502,
  "limit": 30506,
  "limite": 30522,
  "limited": 30525,
  "lin": 30544,
  "lina": 30547,
  "linda": 30550,
  "line": 30556,
  "linear": 30562,
  "liner": 30568,
  "lines": 30569,
  "liness": 30571,
  "ling": 30575,
  "lingual": 30585,
  "linha": 30592,
  "link": 30600,
  "linked": 30605,
  "lino": 30612,
  "lio": 30615,
  "lion": 30616,
  "lip": 30621,
  "liquid": 30629,
  "lis": 30641,
  "lisa": 30643,
  "lish": 30649,
  "lismo": 30650,
  "list": 30652,
  "lista": 30655,
  "lit": 30673,
  "lita": 30676,
  "lite": 30677,
  "liter": 30680,
  "literally": 30685,
  "lith": 30698,
  "lito": 30709,
  "little": 30715,
  "litz": 30727,
  "lium": 30729,
  "liv": 30730,
  "live": 30732,
  "lived": 30737,
  "liver": 30741,
  "living": 30746,
  "livre": 30753,
  "livro": 30758,
  "lix": 30764,
  "liza": 30768,
  "lizar": 30770,
  "liza\u00e7\u00e3o": 30769,
  "lk": 30773,
  "ll": 30774,
  "lla": 30776,
  "llah": 30777,
  "lle": 30780,
  "llen": 30781,
  "ller": 30782,
  "lli": 30783,
  "llier": 30784,
  "lling": 30785,
  "llo": 30786,
  "lly": 30788,
  "ll\u00e1h": 30778,
  "lma": 30790,
  "lmente": 30791,
  "ln": 30792,
  "lo": 30794,
  "load": 30801,
  "loaded": 30804,
  "lob": 30811,
  "loc": 30819,
  "local": 30825,
  "located": 30849,
  "location": 30853,
  "loch": 30859,
  "lock": 30861,
  "lod": 30873,
  "loft": 30879,
  "log": 30882,
  "logger": 30889,
  "logging": 30890,
  "logia": 30892,
  "logic": 30893,
  "logical": 30898,
  "logicamente": 30901,
  "logista": 30906,
  "logo": 30914,
  "logue": 30921,
  "logy": 30922,
  "lom": 30930,
  "lon": 30933,
  "lone": 30941,
  "long": 30946,
  "longa": 30950,
  "longside": 30962,
  "loo": 30964,
  "look": 30965,
  "looking": 30971,
  "loop": 30976,
  "lop": 30983,
  "lope": 30984,
  "lor": 30988,
  "lord": 30990,
  "los": 31000,
  "loss": 31008,
  "lot": 31014,
  "lou": 31031,
  "lough": 31040,
  "lounge": 31046,
  "lov": 31056,
  "love": 31057,
  "loved": 31062,
  "lover": 31066,
  "low": 31072,
  "loy": 31081,
  "lp": 31085,
  "ls": 31089,
  "lt": 31092,
  "lter": 31102,
  "lternativamente": 31103,
  "ltima": 31104,
  "ltimo": 31105,
  "ltimos": 31106,
  "lton": 31107,
  "lu": 31108,
  "luc": 31123,
  "luck": 31136,
  "lug": 31151,
  "lugar": 31153,
  "lugu\u00e9is": 31160,
  "lui": 31161,
  "lum": 31170,
  "lumina": 31175,
  "luna": 31183,
  "lung": 31190,
  "lus": 31197,
  "lusion": 31199,
  "lusive": 31200,
  "lustr": 31202,
  "lut": 31203,
  "luta": 31204,
  "lute": 31214,
  "lux": 31222,
  "luz": 31238,
  "lv": 31242,
  "lva": 31244,
  "lvaro": 31245,
  "ly": 31247,
  "lyn": 31255,
  "lysis": 31264,
  "lytic": 31265,
  "l\u00e1": 29520,
  "l\u00e2ndia": 29674,
  "l\u00e9": 29884,
  "l\u00ea": 29886,
  "l\u00ed": 30270,
  "l\u00edder": 30390,
  "l\u00edtica": 30703,
  "l\u00edtico": 30704,
  "l\u00f3": 30800,
  "l\u00f3gica": 30896,
  "l\u00f3gico": 30902,
  "l\u00f3ti": 31023,
  "m": 31266,
  "ma": 31270,
  "mac": 31281,
  "machi": 31300,
  "machine": 31301,
  "mad": 31329,
  "mada": 31334,
  "made": 31339,
  "mag": 31366,
  "magic": 31382,
  "magnetic": 31401,
  "mago": 31416,
  "magrecimento": 31421,
  "mai": 31427,
  "maid": 31430,
  "mail": 31434,
  "mails": 31440,
  "main": 31441,
  "maior": 31460,
  "maioritariamente": 31467,
  "mais": 31468,
  "major": 31486,
  "make": 31492,
  "maker": 31497,
  "makers": 31500,
  "making": 31505,
  "mal": 31508,
  "mala": 31512,
  "male": 31532,
  "malware": 31560,
  "man": 31576,
  "managed": 31585,
  "management": 31587,
  "mand": 31604,
  "manh\u00e3": 31632,
  "mani": 31635,
  "mania": 31636,
  "mann": 31664,
  "manufacture": 31706,
  "many": 31727,
  "map": 31737,
  "mar": 31766,
  "mara": 31772,
  "marca": 31788,
  "mare": 31819,
  "mari": 31836,
  "maria": 31838,
  "marine": 31850,
  "mark": 31872,
  "market": 31879,
  "marketing": 31885,
  "marriage": 31904,
  "maru": 31943,
  "mas": 31955,
  "mass": 31981,
  "massa": 31984,
  "massive": 31996,
  "master": 32000,
  "mat": 32013,
  "mata": 32018,
  "match": 32028,
  "mate": 32034,
  "materiais": 32044,
  "material": 32047,
  "mates": 32060,
  "matic": 32070,
  "mato": 32074,
  "matrices": 32078,
  "matsu": 32087,
  "matter": 32091,
  "mature": 32101,
  "max": 32116,
  "maximum": 32135,
  "may": 32139,
  "maybe": 32145,
  "mb": 32154,
  "mba": 32157,
  "mber": 32160,
  "mbi": 32161,
  "mbling": 32162,
  "mbo": 32163,
  "mbra": 32165,
  "mbre": 32166,
  "mbria": 32167,
  "mcg": 32179,
  "me": 32186,
  "mean": 32200,
  "meaning": 32203,
  "measure": 32216,
  "meat": 32227,
  "mechanic": 32240,
  "mec\u00e2nica": 32230,
  "med": 32249,
  "media": 32263,
  "mediante": 32275,
  "medical": 32288,
  "medicina": 32303,
  "medicine": 32309,
  "mega": 32362,
  "megapixel": 32366,
  "mel": 32374,
  "melhor": 32385,
  "member": 32415,
  "membr": 32423,
  "membro": 32427,
  "membros": 32431,
  "men": 32459,
  "menopausal": 32486,
  "menos": 32491,
  "mens": 32494,
  "ment": 32511,
  "menta": 32513,
  "mentais": 32516,
  "mental": 32518,
  "mentar": 32525,
  "menta\u00e7\u00e3o": 32515,
  "mente": 32526,
  "mentioned": 32534,
  "mento": 32542,
  "mentos": 32545,
  "ments": 32546,
  "mer": 32551,
  "mera": 32555,
  "mercado": 32559,
  "mere": 32589,
  "meric": 32606,
  "mero": 32616,
  "mers": 32620,
  "mes": 32621,
  "mesmo": 32634,
  "mestre": 32659,
  "met": 32663,
  "meta": 32667,
  "metal": 32684,
  "meteo": 32702,
  "meter": 32712,
  "meth": 32716,
  "method": 32718,
  "methyl": 32728,
  "metil": 32732,
  "metragem": 32742,
  "metragens": 32743,
  "metre": 32745,
  "metria": 32747,
  "metric": 32748,
  "metro": 32755,
  "metry": 32766,
  "mg": 32786,
  "mi": 32792,
  "mia": 32798,
  "mic": 32802,
  "mica": 32804,
  "michael": 32807,
  "mico": 32818,
  "micro": 32819,
  "microbiano": 32825,
  "mid": 32846,
  "mida": 32849,
  "middle": 32850,
  "mie": 32864,
  "mig": 32865,
  "migrantes": 32876,
  "migration": 32883,
  "mil": 32892,
  "mile": 32905,
  "milie": 32925,
  "militar": 32933,
  "military": 32938,
  "milk": 32942,
  "mill": 32946,
  "millennial": 32950,
  "millimeter": 32959,
  "million": 32960,
  "min": 32973,
  "mina": 32978,
  "minado": 32982,
  "minal": 32983,
  "minar": 32984,
  "minating": 32988,
  "mina\u00e7\u00e3o": 32981,
  "mind": 32989,
  "minded": 32992,
  "mine": 32997,
  "ming": 33011,
  "minha": 33015,
  "mini": 33020,
  "minister": 33048,
  "ministra": 33056,
  "ministro": 33061,
  "minou": 33080,
  "minute": 33087,
  "mio": 33095,
  "mir": 33098,
  "mira": 33100,
  "mis": 33111,
  "miss": 33135,
  "missibility": 33146,
  "mission": 33152,
  "miss\u00e3o": 33141,
  "miss\u00f5es": 33163,
  "misunderstanding": 33192,
  "mit": 33195,
  "mita": 33200,
  "mite": 33203,
  "mitida": 33205,
  "mitindo": 33211,
  "mitir": 33212,
  "mitiu": 33213,
  "mito": 33214,
  "mitting": 33225,
  "mix": 33229,
  "ml": 33240,
  "mm": 33244,
  "mme": 33248,
  "mmer": 33249,
  "mmonium": 33252,
  "mo": 33253,
  "mobil": 33262,
  "mobile": 33265,
  "mocraticamente": 33290,
  "mod": 33291,
  "modal": 33297,
  "mode": 33302,
  "model": 33305,
  "modelo": 33312,
  "modern": 33328,
  "moderna": 33332,
  "modernismo": 33337,
  "moderno": 33342,
  "moeda": 33380,
  "mol": 33392,
  "mon": 33433,
  "mona": 33439,
  "mond": 33454,
  "money": 33463,
  "mongst": 33472,
  "monia": 33473,
  "monitor": 33477,
  "mont": 33514,
  "monte": 33532,
  "month": 33540,
  "moon": 33559,
  "moor": 33562,
  "mor": 33567,
  "mora": 33571,
  "moral": 33580,
  "more": 33600,
  "morfismo": 33608,
  "morfo": 33609,
  "morph": 33622,
  "morphic": 33624,
  "mortal": 33642,
  "mortem": 33650,
  "mos": 33657,
  "most": 33675,
  "mother": 33704,
  "motion": 33712,
  "moto": 33730,
  "motor": 33736,
  "mount": 33755,
  "mouth": 33770,
  "mov": 33772,
  "moving": 33807,
  "mov\u00ea": 33777,
  "mp": 33814,
  "mph": 33818,
  "mplementing": 33819,
  "mplifica": 33820,
  "mpreendedorismo": 33821,
  "mu": 33840,
  "much": 33846,
  "mudan\u00e7a": 33864,
  "muitas": 33883,
  "muito": 33888,
  "mul": 33896,
  "mulher": 33899,
  "multi": 33906,
  "multidimensional": 33914,
  "multidisciplinar": 33915,
  "mun": 33950,
  "mund": 33952,
  "mundo": 33961,
  "mune": 33965,
  "munity": 33979,
  "mur": 33980,
  "mura": 33982,
  "mus": 34001,
  "museum": 34018,
  "music": 34027,
  "must": 34047,
  "mut": 34052,
  "mu\u00e7ulmano": 33854,
  "my": 34074,
  "m\u00e1quina": 31759,
  "m\u00e1rmore": 31894,
  "m\u00e1tica": 32071,
  "m\u00e1ticas": 32072,
  "m\u00e1tico": 32073,
  "m\u00e1x": 32122,
  "m\u00e3": 31278,
  "m\u00e3e": 31357,
  "m\u00e3o": 31732,
  "m\u00e9": 32192,
  "m\u00e9dia": 32268,
  "m\u00e9dico": 32313,
  "m\u00e9dio": 32329,
  "m\u00e9rica": 32607,
  "m\u00e9rito": 32609,
  "m\u00e9trica": 32750,
  "m\u00e9trico": 32752,
  "m\u00e9tricos": 32753,
  "m\u00eddia": 32854,
  "m\u00f3nio": 33475,
  "m\u00f3veis": 33779,
  "m\u00f3vel": 33782,
  "m\u00f4nio": 33476,
  "n": 34102,
  "na": 34106,
  "nacional": 34120,
  "nada": 34128,
  "nado": 34134,
  "nah": 34139,
  "nai": 34141,
  "nais": 34146,
  "nak": 34148,
  "nal": 34151,
  "nam": 34152,
  "name": 34154,
  "named": 34159,
  "namorado": 34167,
  "nan": 34172,
  "nar": 34202,
  "nard": 34210,
  "nas": 34221,
  "nascer": 34233,
  "nascido": 34239,
  "nascidos": 34242,
  "nata": 34252,
  "natal": 34254,
  "nate": 34260,
  "nation": 34262,
  "national": 34265,
  "nato": 34284,
  "natural": 34290,
  "nature": 34298,
  "nau": 34304,
  "nav": 34312,
  "nay": 34338,
  "na\u00e7\u00e3o": 34115,
  "nc": 34350,
  "nca": 34353,
  "ncar": 34355,
  "nce": 34358,
  "nch": 34359,
  "nchez": 34360,
  "nci": 34361,
  "ncia": 34363,
  "ncies": 34365,
  "ncing": 34366,
  "ncipe": 34367,
  "nco": 34368,
  "ncora": 34370,
  "ncreased": 34371,
  "ncy": 34372,
  "nd": 34373,
  "nda": 34375,
  "nde": 34377,
  "ndel": 34378,
  "nder": 34379,
  "ndere": 34380,
  "ndez": 34381,
  "ndi": 34382,
  "ndia": 34383,
  "ndice": 34384,
  "ndico": 34385,
  "ndo": 34386,
  "ndra": 34388,
  "ndre": 34389,
  "ndro": 34390,
  "ndula": 34391,
  "ne": 34392,
  "nea": 34400,
  "near": 34402,
  "nec": 34417,
  "necessary": 34425,
  "neck": 34441,
  "ned": 34448,
  "nega": 34459,
  "negative": 34470,
  "negotiable": 34502,
  "nel": 34532,
  "nell": 34538,
  "nen": 34542,
  "nenhum": 34543,
  "neo": 34549,
  "ner": 34561,
  "nes": 34574,
  "nese": 34577,
  "neses": 34578,
  "ness": 34580,
  "neste": 34593,
  "net": 34600,
  "network": 34612,
  "neur": 34621,
  "neurotransmitter": 34638,
  "neutral": 34640,
  "never": 34657,
  "new": 34666,
  "next": 34690,
  "ney": 34695,
  "nez": 34698,
  "nf": 34699,
  "nfectious": 34702,
  "ng": 34704,
  "nga": 34706,
  "nge": 34708,
  "ngel": 34709,
  "nger": 34710,
  "ngo": 34712,
  "ngol": 34714,
  "ngu": 34716,
  "ngue": 34717,
  "ngula": 34718,
  "ngulo": 34719,
  "nh": 34720,
  "nha": 34723,
  "nhado": 34724,
  "nham": 34725,
  "nhar": 34726,
  "nhec": 34727,
  "nheiro": 34728,
  "nho": 34729,
  "nhos": 34730,
  "ni": 34731,
  "nia": 34738,
  "nian": 34741,
  "niano": 34742,
  "nibus": 34743,
  "nic": 34744,
  "nica": 34747,
  "nicamente": 34748,
  "nice": 34751,
  "nick": 34761,
  "nico": 34766,
  "nie": 34776,
  "nier": 34779,
  "nig": 34781,
  "night": 34788,
  "nik": 34796,
  "nim": 34803,
  "nin": 34805,
  "nina": 34806,
  "nine": 34808,
  "ning": 34814,
  "nio": 34826,
  "nis": 34831,
  "nish": 34832,
  "nismo": 34833,
  "nit": 34837,
  "nita": 34838,
  "nity": 34850,
  "nium": 34851,
  "nix": 34858,
  "nj": 34860,
  "nk": 34862,
  "nn": 34865,
  "nna": 34867,
  "nne": 34868,
  "nner": 34869,
  "nnie": 34870,
  "nning": 34871,
  "nny": 34872,
  "no": 34873,
  "node": 34898,
  "noite": 34907,
  "noma": 34914,
  "nome": 34916,
  "nomi": 34931,
  "nomia": 34932,
  "nomic": 34933,
  "nominated": 34936,
  "nomy": 34941,
  "non": 34942,
  "nor": 34953,
  "normal": 34968,
  "normalmente": 34974,
  "nos": 35005,
  "nosso": 35020,
  "not": 35029,
  "nota": 35034,
  "note": 35048,
  "nothing": 35059,
  "nou": 35102,
  "nov": 35109,
  "nova": 35111,
  "novo": 35138,
  "now": 35147,
  "ns": 35160,
  "nsa": 35162,
  "nscription": 35164,
  "nsen": 35165,
  "nsi": 35166,
  "nso": 35167,
  "nsonoriza\u00e7\u00e3o": 35168,
  "nstable": 35169,
  "nsu": 35170,
  "nt": 35171,
  "nta": 35174,
  "ntal": 35175,
  "nte": 35176,
  "nter": 35178,
  "ntes": 35179,
  "nti": 35180,
  "ntia": 35181,
  "ntin": 35182,
  "ntina": 35183,
  "ntino": 35184,
  "nto": 35185,
  "nton": 35186,
  "ntraremos": 35187,
  "ntre": 35188,
  "ntro": 35189,
  "ntr\u00f3pica": 35190,
  "ntu": 35191,
  "nu": 35192,
  "nucle": 35200,
  "nuclear": 35201,
  "nucleotide": 35208,
  "num": 35217,
  "number": 35223,
  "nunca": 35248,
  "nunciamos": 35252,
  "nunciando": 35253,
  "nunciar": 35254,
  "nuncie": 35255,
  "nunciou": 35256,
  "nus": 35266,
  "nut": 35267,
  "nutri": 35271,
  "nutrient": 35278,
  "nutrition": 35284,
  "nx": 35300,
  "ny": 35302,
  "nya": 35306,
  "nz": 35311,
  "nza": 35313,
  "nzi": 35315,
  "n\u00e1": 34112,
  "n\u00e1rio": 34211,
  "n\u00e3": 34113,
  "n\u00e3o": 34183,
  "n\u00e7a": 34354,
  "n\u00e7as": 34356,
  "n\u00e7o": 34369,
  "n\u00e9": 34398,
  "n\u00e9sia": 34579,
  "n\u00eas": 34576,
  "n\u00ed": 34737,
  "n\u00edqueis": 34828,
  "n\u00edvel": 34855,
  "n\u00f3": 34879,
  "n\u00f3s": 35010,
  "n\u00famero": 35237,
  "o": 35316,
  "oC": 35513,
  "oa": 35324,
  "ob": 35333,
  "oba": 35337,
  "obi": 35356,
  "object": 35360,
  "objetiv": 35379,
  "obo": 35395,
  "obra": 35396,
  "obrigatoriamente": 35411,
  "observa": 35424,
  "oc": 35511,
  "occa": 35523,
  "occo": 35530,
  "occupied": 35537,
  "ocean": 35548,
  "och": 35559,
  "oci": 35560,
  "ock": 35568,
  "ococcus": 35571,
  "ocracy": 35585,
  "ocrat": 35586,
  "ocratic": 35587,
  "ocular": 35593,
  "ocupa": 35598,
  "ocx": 35612,
  "ocyte": 35613,
  "od": 35614,
  "oda": 35617,
  "ode": 35622,
  "odi": 35628,
  "odom": 35635,
  "odont": 35636,
  "odor": 35638,
  "odoro": 35640,
  "ody": 35643,
  "oe": 35645,
  "of": 35652,
  "off": 35688,
  "office": 35708,
  "official": 35716,
  "offs": 35723,
  "oficial": 35730,
  "often": 35739,
  "og": 35742,
  "oga": 35744,
  "ogen": 35745,
  "ogenesis": 35746,
  "ogenic": 35747,
  "ognitiv": 35749,
  "ografia": 35750,
  "ogram": 35753,
  "ograma": 35754,
  "ograph": 35755,
  "ographer": 35756,
  "ographic": 35757,
  "ography": 35758,
  "ogr\u00e1fico": 35751,
  "ogue": 35759,
  "oh": 35760,
  "oi": 35768,
  "oid": 35771,
  "oids": 35774,
  "oil": 35775,
  "oire": 35780,
  "ois": 35781,
  "oise": 35783,
  "ok": 35792,
  "oka": 35797,
  "oke": 35801,
  "okie": 35802,
  "oku": 35805,
  "ol": 35806,
  "ola": 35809,
  "olar": 35812,
  "olating": 35813,
  "old": 35814,
  "ole": 35821,
  "olecular": 35822,
  "oli": 35841,
  "oligarch": 35844,
  "olin": 35852,
  "olo": 35862,
  "olog": 35863,
  "ologia": 35865,
  "ologic": 35866,
  "ological": 35868,
  "ologie": 35871,
  "ologist": 35872,
  "ologista": 35873,
  "ologistas": 35874,
  "ologists": 35875,
  "ology": 35878,
  "olution": 35879,
  "olytic": 35884,
  "ol\u00f3gica": 35867,
  "ol\u00f3gico": 35870,
  "om": 35885,
  "oma": 35888,
  "omb": 35892,
  "ombo": 35893,
  "ome": 35898,
  "omen": 35904,
  "omer": 35905,
  "ometer": 35906,
  "ometric": 35907,
  "ometry": 35910,
  "omi": 35911,
  "omo": 35921,
  "omplimentary": 35922,
  "omycin": 35925,
  "on": 35926,
  "ona": 35934,
  "once": 35936,
  "onda": 35940,
  "ondas": 35942,
  "onde": 35944,
  "ondo": 35948,
  "one": 35950,
  "ong": 35958,
  "oni": 35963,
  "onia": 35964,
  "onic": 35968,
  "online": 35978,
  "only": 35982,
  "onne": 35987,
  "ons": 35988,
  "onstruindo": 35991,
  "ontrary": 35997,
  "ony": 36001,
  "oo": 36003,
  "oodle": 36005,
  "ooh": 36006,
  "ook": 36008,
  "ookie": 36009,
  "ool": 36010,
  "oom": 36012,
  "oon": 36013,
  "op": 36014,
  "opa": 36020,
  "opathic": 36022,
  "opathy": 36023,
  "opcional": 36027,
  "ope": 36033,
  "open": 36035,
  "opera": 36046,
  "operate": 36071,
  "operating": 36075,
  "operation": 36078,
  "operative": 36086,
  "operat\u00f3ria": 36091,
  "operat\u00f3rio": 36092,
  "oph": 36094,
  "ophi": 36095,
  "ophy": 36096,
  "opia": 36097,
  "oplastia": 36107,
  "oplasty": 36108,
  "opoulos": 36127,
  "ops": 36152,
  "opt": 36153,
  "optic": 36161,
  "optional": 36188,
  "or": 36194,
  "ora": 36201,
  "oral": 36211,
  "ord": 36234,
  "orde": 36237,
  "order": 36249,
  "ordinate": 36263,
  "ordinating": 36264,
  "ordination": 36265,
  "ore": 36266,
  "ores": 36272,
  "org": 36275,
  "organ": 36276,
  "organic": 36279,
  "organiz": 36300,
  "organization": 36318,
  "organiza\u00e7\u00e3o": 36303,
  "organized": 36324,
  "ori": 36345,
  "oria": 36346,
  "orient": 36350,
  "orientated": 36367,
  "oriented": 36371,
  "ories": 36373,
  "origin": 36378,
  "original": 36385,
  "oro": 36412,
  "ort": 36417,
  "ortic": 36424,
  "ory": 36430,
  "os": 36431,
  "osa": 36438,
  "osamente": 36441,
  "osas": 36442,
  "oscopy": 36446,
  "ose": 36447,
  "osfera": 36448,
  "osh": 36449,
  "oshi": 36450,
  "osidade": 36451,
  "osis": 36453,
  "oso": 36456,
  "osophical": 36457,
  "osos": 36458,
  "osphere": 36459,
  "ossauro": 36460,
  "osse": 36461,
  "ost": 36466,
  "ost\u00e1tica": 36469,
  "ot": 36476,
  "ota": 36479,
  "ota\u00e7\u00f5es": 36481,
  "ote": 36483,
  "otel": 36484,
  "oterapia": 36485,
  "oth": 36486,
  "other": 36487,
  "otherapy": 36492,
  "otic": 36497,
  "oto": 36513,
  "otomy": 36517,
  "otropic": 36518,
  "otti": 36521,
  "otto": 36522,
  "ou": 36525,
  "oud": 36532,
  "ough": 36533,
  "ought": 36535,
  "oul": 36537,
  "ounce": 36538,
  "ound": 36540,
  "our": 36542,
  "ouro": 36548,
  "ous": 36552,
  "out": 36556,
  "outros": 36603,
  "outs": 36606,
  "ov": 36633,
  "ova": 36635,
  "over": 36643,
  "ovi": 36680,
  "ovic": 36681,
  "ovich": 36682,
  "ovo": 36684,
  "ovsky": 36687,
  "ow": 36691,
  "owitz": 36698,
  "owl": 36699,
  "own": 36700,
  "owned": 36703,
  "owner": 36705,
  "owski": 36711,
  "ox": 36712,
  "oxetine": 36717,
  "oxi": 36719,
  "oxidant": 36722,
  "oxidante": 36723,
  "oxide": 36727,
  "oxy": 36734,
  "oy": 36737,
  "oz": 36740,
  "o\u00edsta": 35784,
  "p": 36744,
  "pa": 36748,
  "pac": 36757,
  "paced": 36763,
  "pack": 36775,
  "package": 36779,
  "packed": 36787,
  "paco": 36794,
  "pad": 36802,
  "padr\u00e3o": 36810,
  "pag": 36827,
  "paga": 36830,
  "pagamento": 36835,
  "page": 36845,
  "pago": 36857,
  "pai": 36862,
  "paid": 36866,
  "paix\u00e3o": 36897,
  "pal": 36904,
  "pala": 36907,
  "palavra": 36919,
  "pan": 36966,
  "panha": 36987,
  "paper": 37017,
  "papo": 37023,
  "par": 37026,
  "para": 37031,
  "paragraph": 37059,
  "parar": 37091,
  "pare": 37115,
  "parece": 37119,
  "parelha": 37136,
  "parent": 37137,
  "pari": 37146,
  "park": 37155,
  "paro": 37174,
  "parque": 37178,
  "part": 37186,
  "parte": 37193,
  "parti": 37199,
  "participa": 37206,
  "particle": 37235,
  "particularly": 37243,
  "partid\u00e1rio": 37250,
  "partner": 37273,
  "party": 37284,
  "pas": 37287,
  "pass": 37294,
  "passa": 37299,
  "passe": 37329,
  "passo": 37355,
  "pass\u00edvel": 37352,
  "past": 37366,
  "pat": 37382,
  "pata": 37385,
  "patch": 37389,
  "path": 37405,
  "pathy": 37418,
  "pati": 37419,
  "patia": 37420,
  "patient": 37424,
  "patrick": 37447,
  "patriot": 37455,
  "patriota": 37457,
  "paw": 37500,
  "pay": 37504,
  "payment": 37511,
  "pa\u00eds": 36889,
  "pcs": 37528,
  "pdf": 37531,
  "pe": 37535,
  "peace": 37546,
  "pec": 37564,
  "pect": 37577,
  "ped": 37581,
  "pedia": 37598,
  "peer": 37624,
  "peg": 37627,
  "pel": 37645,
  "pela": 37647,
  "pell": 37655,
  "pelo": 37657,
  "pen": 37664,
  "penha": 37697,
  "pens": 37713,
  "pensa": 37714,
  "pent": 37744,
  "people": 37753,
  "peptide": 37763,
  "pept\u00eddeo": 37764,
  "pequena": 37765,
  "pequeno": 37770,
  "per": 37775,
  "pera": 37781,
  "perante": 37782,
  "percebi": 37793,
  "percent": 37802,
  "perfect": 37857,
  "performance": 37875,
  "performing": 37882,
  "perhaps": 37907,
  "peri": 37911,
  "period": 37928,
  "permanent": 37965,
  "person": 38053,
  "personal": 38061,
  "per\u00edodo": 37938,
  "pes": 38133,
  "pessoa": 38170,
  "pessoal": 38176,
  "pet": 38188,
  "petit": 38200,
  "petro": 38207,
  "ph": 38229,
  "pha": 38236,
  "phal": 38238,
  "phan": 38239,
  "pharma": 38245,
  "pharyngeal": 38255,
  "phase": 38256,
  "phe": 38261,
  "phen": 38262,
  "phenol": 38264,
  "phenyl": 38270,
  "pher": 38271,
  "phi": 38272,
  "phil": 38274,
  "philia": 38280,
  "pho": 38300,
  "phobia": 38302,
  "phobic": 38303,
  "phon": 38306,
  "phone": 38307,
  "phosphate": 38316,
  "photo": 38319,
  "phrase": 38343,
  "phthal": 38346,
  "phy": 38348,
  "physical": 38350,
  "physics": 38358,
  "physiologic": 38361,
  "pi": 38367,
  "pia": 38373,
  "pic": 38382,
  "pica": 38385,
  "pick": 38390,
  "pico": 38397,
  "picture": 38401,
  "pid": 38408,
  "pida": 38409,
  "pido": 38410,
  "pie": 38411,
  "piece": 38414,
  "pier": 38422,
  "pik": 38437,
  "pil": 38439,
  "pilha": 38450,
  "pilot": 38461,
  "piloto": 38465,
  "pin": 38473,
  "pina": 38477,
  "pine": 38481,
  "ping": 38485,
  "pio": 38503,
  "pipe": 38519,
  "pir": 38526,
  "pira": 38528,
  "piste": 38556,
  "pit": 38562,
  "pita": 38565,
  "pixel": 38578,
  "pl": 38584,
  "pla": 38589,
  "place": 38599,
  "placed": 38604,
  "plain": 38612,
  "plan": 38617,
  "plane": 38625,
  "planet": 38645,
  "plano": 38662,
  "plant": 38668,
  "planta": 38671,
  "plasm": 38686,
  "plasma": 38687,
  "plast": 38691,
  "plastic": 38693,
  "plat": 38702,
  "plataforma": 38705,
  "plate": 38710,
  "platform": 38719,
  "platz": 38727,
  "play": 38730,
  "player": 38737,
  "playing": 38745,
  "ple": 38754,
  "please": 38760,
  "plex": 38782,
  "pli": 38783,
  "plic": 38784,
  "plication": 38785,
  "plique": 38787,
  "plug": 38793,
  "plus": 38813,
  "ply": 38819,
  "pl\u00e1stico": 38697,
  "pm": 38821,
  "po": 38835,
  "pod": 38854,
  "pode": 38859,
  "poder": 38871,
  "poderoso": 38890,
  "point": 38918,
  "pol": 38940,
  "polar": 38948,
  "pole": 38954,
  "poli": 38964,
  "policy": 38977,
  "polis": 38989,
  "political": 39001,
  "poly": 39042,
  "polymer": 39048,
  "pol\u00edmero": 38984,
  "pol\u00edtica": 38997,
  "pol\u00edtico": 39010,
  "pon": 39059,
  "pond": 39061,
  "pondo": 39067,
  "ponente": 39068,
  "pong": 39069,
  "ponha": 39070,
  "ponham": 39072,
  "ponta": 39076,
  "ponte": 39079,
  "ponto": 39093,
  "pool": 39103,
  "poor": 39107,
  "pop": 39113,
  "population": 39132,
  "por": 39140,
  "porn": 39163,
  "porque": 39174,
  "port": 39181,
  "porta": 39186,
  "porte": 39205,
  "pos": 39242,
  "pose": 39251,
  "posicion": 39261,
  "posit": 39271,
  "position": 39272,
  "positiva": 39278,
  "positive": 39282,
  "positivo": 39286,
  "posito": 39289,
  "posi\u00e7\u00e3o": 39258,
  "posi\u00e7\u00f5es": 39268,
  "possible": 39314,
  "possibly": 39317,
  "post": 39336,
  "posta": 39340,
  "posto": 39367,
  "pot": 39381,
  "pouco": 39415,
  "pound": 39421,
  "povo": 39441,
  "powder": 39446,
  "power": 39450,
  "powered": 39455,
  "powerful": 39458,
  "pp": 39465,
  "ppa": 39469,
  "pped": 39471,
  "ppel": 39472,
  "ppen": 39473,
  "pper": 39474,
  "pping": 39475,
  "ppy": 39477,
  "pr": 39478,
  "pra": 39484,
  "practice": 39494,
  "prazo": 39553,
  "pre": 39558,
  "precisa": 39596,
  "precision": 39616,
  "preender": 39679,
  "preendi": 39680,
  "prend": 39767,
  "prendemos": 39770,
  "prendendo": 39771,
  "prepared": 39809,
  "pres": 39820,
  "present": 39844,
  "presente": 39850,
  "preserv": 39859,
  "preserved": 39871,
  "president": 39883,
  "presidente": 39887,
  "press": 39898,
  "pressed": 39907,
  "pression": 39910,
  "pressivo": 39917,
  "presso": 39918,
  "pressure": 39923,
  "press\u00e3o": 39904,
  "presta": 39927,
  "prevent": 39997,
  "pre\u00e7o": 39625,
  "pri": 40038,
  "price": 40043,
  "prima": 40063,
  "primas": 40076,
  "prime": 40081,
  "primeira": 40084,
  "primeiro": 40091,
  "primido": 40096,
  "primir": 40097,
  "princip": 40117,
  "principalmente": 40124,
  "print": 40141,
  "prise": 40166,
  "private": 40193,
  "pro": 40218,
  "probably": 40233,
  "problem": 40239,
  "problema": 40242,
  "process": 40270,
  "processed": 40284,
  "processing": 40288,
  "produ": 40329,
  "produced": 40335,
  "producer": 40338,
  "producing": 40343,
  "product": 40346,
  "production": 40351,
  "productive": 40354,
  "products": 40358,
  "produ\u00e7\u00e3o": 40330,
  "prof": 40389,
  "professional": 40405,
  "profile": 40426,
  "profissional": 40434,
  "profissionalismo": 40437,
  "profit": 40439,
  "profunda": 40447,
  "program": 40460,
  "programa": 40463,
  "programme": 40474,
  "progress": 40486,
  "progressivamente": 40494,
  "project": 40518,
  "projeto": 40540,
  "proliferati": 40552,
  "promise": 40577,
  "proof": 40647,
  "prop": 40650,
  "propelled": 40659,
  "propri": 40721,
  "propriedade": 40725,
  "propylene": 40742,
  "protect": 40793,
  "protected": 40797,
  "protection": 40801,
  "protective": 40804,
  "protein": 40821,
  "prote\u00e7\u00e3o": 40787,
  "prote\u00edna": 40824,
  "prov": 40862,
  "prova": 40864,
  "provavelmente": 40872,
  "prove": 40875,
  "provide": 40897,
  "provisionamento": 40928,
  "ps": 40965,
  "pseudo": 40974,
  "psi": 40979,
  "psia": 40980,
  "psicologicamente": 40988,
  "pso": 41002,
  "psy": 41006,
  "psych": 41008,
  "pt": 41033,
  "pta": 41036,
  "ptica": 41038,
  "ptico": 41039,
  "ptimo": 41040,
  "pton": 41042,
  "pu": 41043,
  "pub": 41049,
  "public": 41054,
  "publish": 41092,
  "published": 41094,
  "pul": 41114,
  "pula": 41117,
  "pulse": 41131,
  "punha": 41149,
  "punk": 41161,
  "pur": 41169,
  "pura": 41172,
  "puramente": 41174,
  "purchase": 41175,
  "purpose": 41202,
  "pus": 41212,
  "puseram": 41214,
  "pusesse": 41215,
  "put": 41222,
  "puta": 41225,
  "py": 41239,
  "pyr": 41243,
  "p\u00e1": 36754,
  "p\u00e1g": 36829,
  "p\u00e1gina": 36851,
  "p\u00e1tica": 37421,
  "p\u00e1tico": 37422,
  "p\u00e3o": 37002,
  "p\u00e9": 37541,
  "p\u00ea": 37544,
  "p\u00f3": 38841,
  "p\u00f3sito": 39290,
  "p\u00f4s": 39248,
  "p\u00f5e": 38903,
  "p\u00fa": 41048,
  "p\u00fablica": 41060,
  "q": 41248,
  "qa": 41252,
  "qi": 41258,
  "qiao": 41261,
  "qu": 41265,
  "qua": 41270,
  "quad": 41275,
  "quadro": 41286,
  "qual": 41295,
  "qualidade": 41301,
  "qualification": 41312,
  "qualified": 41316,
  "quality": 41326,
  "qualquer": 41330,
  "quan": 41334,
  "quando": 41337,
  "quanto": 41363,
  "quart": 41380,
  "quarter": 41385,
  "quat": 41403,
  "que": 41408,
  "quei": 41430,
  "queira": 41439,
  "queiro": 41442,
  "quem": 41446,
  "quente": 41454,
  "quer": 41458,
  "ques": 41485,
  "quest": 41486,
  "question": 41491,
  "quet": 41511,
  "quette": 41512,
  "qui": 41514,
  "quia": 41520,
  "quil": 41531,
  "quim": 41540,
  "quin": 41552,
  "quina": 41554,
  "quinha": 41555,
  "quinho": 41556,
  "quino": 41558,
  "quis": 41569,
  "quist": 41576,
  "quista": 41577,
  "quite": 41580,
  "quo": 41586,
  "quote": 41594,
  "qu\u00e9": 41414,
  "qu\u00ea": 41415,
  "qu\u00eancia": 41451,
  "qu\u00ed": 41519,
  "qu\u00edmica": 41541,
  "qu\u00edmico": 41546,
  "r": 41604,
  "ra": 41608,
  "rab": 41618,
  "rac": 41629,
  "race": 41634,
  "rach": 41638,
  "racial": 41642,
  "rack": 41656,
  "rad": 41661,
  "rada": 41663,
  "rade": 41666,
  "radi": 41667,
  "radio": 41685,
  "rado": 41699,
  "rados": 41700,
  "rag": 41705,
  "rage": 41708,
  "rah": 41710,
  "rai": 41712,
  "rail": 41717,
  "rain": 41723,
  "rais": 41738,
  "raising": 41743,
  "raj": 41749,
  "rak": 41752,
  "ral": 41755,
  "ram": 41761,
  "rama": 41766,
  "ran": 41780,
  "rand": 41787,
  "rando": 41789,
  "rang": 41796,
  "range": 41797,
  "ranging": 41801,
  "rank": 41803,
  "ranking": 41807,
  "rant": 41815,
  "rante": 41816,
  "rap": 41818,
  "rar": 41847,
  "ras": 41858,
  "rash": 41864,
  "rat": 41878,
  "rata": 41881,
  "rate": 41882,
  "rated": 41885,
  "rather": 41891,
  "rati": 41894,
  "rating": 41900,
  "ration": 41905,
  "rato": 41910,
  "rav": 41917,
  "rava": 41919,
  "raw": 41922,
  "ray": 41925,
  "rays": 41931,
  "raz": 41933,
  "ra\u00e7a": 41630,
  "ra\u00e7\u00e3o": 41632,
  "ra\u00e7\u00f5es": 41660,
  "rb": 41943,
  "rc": 41945,
  "rch": 41949,
  "rchaeological": 41950,
  "rd": 41951,
  "rden": 41953,
  "rdina": 41954,
  "rdoba": 41955,
  "re": 41956,
  "rea": 41964,
  "reach": 41974,
  "reaching": 41980,
  "read": 41993,
  "ready": 42006,
  "real": 42020,
  "reason": 42072,
  "rebel": 42089,
  "rebent": 42099,
  "rece": 42122,
  "receptor": 42176,
  "reci": 42185,
  "recido": 42191,
  "red": 42400,
  "rede": 42410,
  "redirecionamento": 42434,
  "redonda": 42443,
  "ref": 42492,
  "reference": 42504,
  "referred": 42532,
  "refer\u00eancia": 42512,
  "refriger": 42599,
  "refundable": 42619,
  "reg": 42630,
  "region": 42667,
  "regional": 42673,
  "register": 42685,
  "regi\u00e3o": 42652,
  "regular": 42744,
  "regulated": 42752,
  "regulation": 42756,
  "regula\u00e7\u00e3o": 42726,
  "rei": 42772,
  "reira": 42808,
  "reiro": 42809,
  "rel": 42835,
  "rela": 42836,
  "relaciona": 42841,
  "related": 42866,
  "relationship": 42876,
  "release": 42915,
  "released": 42918,
  "religiosa": 42954,
  "religioso": 42958,
  "religious": 42961,
  "rem": 42979,
  "reme": 42998,
  "remos": 43032,
  "ren": 43063,
  "rena": 43066,
  "renda": 43078,
  "reno": 43096,
  "renowned": 43112,
  "rent": 43114,
  "rep": 43137,
  "reported": 43227,
  "representa": 43250,
  "requisite": 43348,
  "requisito": 43349,
  "res": 43353,
  "research": 43365,
  "reserva": 43383,
  "reservation": 43394,
  "resident": 43426,
  "resistance": 43454,
  "resistant": 43457,
  "resolution": 43474,
  "respect": 43500,
  "respective": 43510,
  "responsabilidade": 43563,
  "responsibilities": 43572,
  "responsibility": 43573,
  "responsive": 43579,
  "ress": 43587,
  "rest": 43604,
  "restabelecimento": 43611,
  "restaura": 43615,
  "ret": 43698,
  "reta": 43699,
  "reto": 43739,
  "retroviral": 43776,
  "return": 43777,
  "reviewed": 43870,
  "revolution": 43921,
  "revolutionary": 43925,
  "rey": 43937,
  "reza": 43941,
  "rf": 43944,
  "rg": 43949,
  "rga": 43951,
  "rgan": 43952,
  "rgen": 43955,
  "rgi": 43956,
  "rgic": 43957,
  "rgo": 43958,
  "rgu": 43960,
  "rg\u00e3o": 43953,
  "rh": 43961,
  "ri": 43975,
  "ria": 43982,
  "rial": 43987,
  "riam": 43988,
  "riamente": 43989,
  "rian": 43991,
  "riana": 43992,
  "riano": 43993,
  "rias": 43994,
  "rib": 43995,
  "ribe": 43999,
  "ric": 44004,
  "rica": 44006,
  "rice": 44014,
  "rich": 44017,
  "rick": 44026,
  "rico": 44029,
  "ricos": 44032,
  "rid": 44034,
  "rida": 44037,
  "ridden": 44038,
  "ride": 44040,
  "ridge": 44047,
  "rido": 44055,
  "rie": 44056,
  "ried": 44058,
  "riedade": 44059,
  "ries": 44060,
  "rif": 44062,
  "rig": 44065,
  "riga": 44068,
  "right": 44070,
  "rik": 44094,
  "ril": 44095,
  "rill": 44097,
  "rim": 44098,
  "rin": 44101,
  "rina": 44102,
  "rine": 44103,
  "ring": 44104,
  "rinha": 44111,
  "rinho": 44112,
  "rink": 44113,
  "rino": 44114,
  "rio": 44118,
  "rios": 44124,
  "rious": 44127,
  "rip": 44128,
  "rippled": 44135,
  "rique": 44136,
  "ris": 44140,
  "risco": 44143,
  "rise": 44147,
  "rish": 44152,
  "rising": 44153,
  "risk": 44156,
  "risos": 44162,
  "rist": 44164,
  "rit": 44165,
  "rita": 44167,
  "rite": 44169,
  "rito": 44174,
  "rium": 44180,
  "riv": 44181,
  "rix": 44195,
  "riya": 44196,
  "riz": 44198,
  "rk": 44200,
  "rl": 44202,
  "rm": 44204,
  "rma": 44206,
  "rmo": 44208,
  "rn": 44209,
  "rna": 44211,
  "ro": 44214,
  "road": 44221,
  "rob": 44230,
  "roc": 44257,
  "rock": 44267,
  "rod": 44277,
  "rog": 44302,
  "roga": 44304,
  "rol": 44312,
  "rola": 44313,
  "roll": 44325,
  "rom": 44335,
  "roma": 44339,
  "rome": 44365,
  "rompe": 44373,
  "ron": 44376,
  "rone": 44383,
  "ronic": 44384,
  "room": 44391,
  "root": 44398,
  "rop": 44403,
  "ros": 44407,
  "rosa": 44410,
  "rose": 44417,
  "roso": 44423,
  "rot": 44430,
  "rote": 44444,
  "rou": 44463,
  "round": 44479,
  "roupa": 44484,
  "rous": 44490,
  "rov": 44501,
  "row": 44504,
  "rox": 44509,
  "roxima": 44511,
  "roy": 44513,
  "rp": 44521,
  "rqu": 44526,
  "rquia": 44527,
  "rr": 44528,
  "rra": 44530,
  "rre": 44531,
  "rrell": 44532,
  "rri": 44533,
  "rrier": 44534,
  "rrington": 44535,
  "rro": 44536,
  "rry": 44537,
  "rs": 44538,
  "rt": 44542,
  "rta": 44545,
  "rthwestern": 44546,
  "rti": 44547,
  "rto": 44548,
  "rttemberg": 44549,
  "ru": 44550,
  "rub": 44559,
  "rud": 44574,
  "rug": 44579,
  "ruga": 44580,
  "rule": 44593,
  "rum": 44602,
  "rump": 44610,
  "run": 44611,
  "runner": 44615,
  "running": 44618,
  "rup": 44623,
  "rus": 44631,
  "rush": 44632,
  "russa": 44637,
  "rv": 44658,
  "ry": 44662,
  "ryl": 44667,
  "r\u00e1": 41614,
  "r\u00e2": 41616,
  "r\u00e3": 41617,
  "r\u00e3o": 41817,
  "r\u00e9": 41962,
  "r\u00ed": 43981,
  "r\u00eda": 43984,
  "r\u00edamos": 43990,
  "r\u00f3": 44220,
  "r\u00f5es": 44301,
  "s": 44669,
  "sa": 44674,
  "sacrifice": 44747,
  "safe": 44769,
  "sai": 44796,
  "sal": 44830,
  "sale": 44851,
  "sales": 44855,
  "salt": 44881,
  "same": 44920,
  "sample": 44925,
  "san": 44935,
  "sar": 45022,
  "sas": 45035,
  "satellite": 45046,
  "satisf": 45050,
  "satisfied": 45066,
  "sativ\u00e1": 45071,
  "saur": 45095,
  "saving": 45107,
  "savvy": 45116,
  "say": 45121,
  "sberg": 45130,
  "sburg": 45131,
  "sc": 45132,
  "sca": 45137,
  "scale": 45144,
  "scan": 45151,
  "scape": 45164,
  "scar": 45165,
  "scentraliza\u00e7\u00e3o": 45188,
  "sch": 45189,
  "schaft": 45193,
  "school": 45218,
  "science": 45233,
  "scientific": 45239,
  "sclerosis": 45249,
  "sco": 45250,
  "scontentamento": 45254,
  "scope": 45258,
  "scopia": 45261,
  "scopic": 45262,
  "score": 45265,
  "screen": 45290,
  "screv\u00ea": 45297,
  "scribe": 45301,
  "scribing": 45302,
  "script": 45304,
  "scrit": 45314,
  "scri\u00e7\u00e3o": 45303,
  "scu": 45320,
  "sc\u00f3pico": 45263,
  "sc\u00f3pio": 45264,
  "se": 45331,
  "sea": 45340,
  "search": 45356,
  "season": 45365,
  "seat": 45371,
  "sec": 45384,
  "second": 45404,
  "secret": 45415,
  "secret\u00e1rio": 45427,
  "section": 45441,
  "sectional": 45445,
  "sector": 45447,
  "security": 45467,
  "see": 45488,
  "seed": 45493,
  "seekers": 45501,
  "seguir": 45543,
  "segunda": 45548,
  "segundo": 45551,
  "seguran\u00e7a": 45560,
  "seguro": 45568,
  "sel": 45590,
  "self": 45622,
  "sell": 45630,
  "seller": 45633,
  "selling": 45637,
  "sem": 45646,
  "semana": 45651,
  "semi": 45670,
  "semitismo": 45686,
  "sempre": 45687,
  "sen": 45691,
  "senhor": 45713,
  "sensibilidade": 45741,
  "sensitive": 45749,
  "sens\u00edveis": 45753,
  "sent": 45766,
  "sentimento": 45791,
  "septic": 45831,
  "sequent": 45844,
  "ser": 45849,
  "series": 45888,
  "serious": 45896,
  "serv": 45915,
  "serve": 45921,
  "server": 45926,
  "service": 45935,
  "services": 45940,
  "serving": 45958,
  "servi\u00e7o": 45945,
  "ses": 45970,
  "sesperadamente": 45971,
  "session": 45975,
  "set": 45980,
  "setting": 45997,
  "seven": 46019,
  "sex": 46047,
  "sexual": 46058,
  "sey": 46067,
  "sfera": 46072,
  "sforEveryone": 46074,
  "sf\u00e9rica": 46073,
  "sh": 46077,
  "sha": 46082,
  "shadow": 46091,
  "shake": 46098,
  "shan": 46115,
  "shape": 46125,
  "shaped": 46128,
  "share": 46132,
  "sharing": 46144,
  "shaw": 46161,
  "she": 46164,
  "shed": 46169,
  "sheet": 46175,
  "shell": 46186,
  "sheng": 46194,
  "sher": 46198,
  "shi": 46206,
  "shield": 46211,
  "shift": 46214,
  "shima": 46222,
  "shin": 46223,
  "ship": 46228,
  "shire": 46241,
  "shirt": 46243,
  "shock": 46252,
  "shoot": 46262,
  "shop": 46268,
  "shore": 46278,
  "short": 46282,
  "shot": 46295,
  "should": 46300,
  "show": 46310,
  "shu": 46332,
  "si": 46342,
  "sia": 46348,
  "sic": 46356,
  "sica": 46357,
  "sid": 46363,
  "side": 46365,
  "sided": 46368,
  "sider": 46369,
  "sie": 46373,
  "sight": 46386,
  "sighted": 46389,
  "sign": 46398,
  "signed": 46411,
  "significa": 46413,
  "significant": 46422,
  "sil": 46442,
  "silicate": 46461,
  "sim": 46476,
  "similar": 46489,
  "sin": 46548,
  "sina": 46551,
  "since": 46562,
  "sing": 46587,
  "single": 46595,
  "sio": 46638,
  "sion": 46639,
  "sional": 46640,
  "sionista": 46641,
  "sis": 46653,
  "sistema": 46656,
  "sistematicamente": 46664,
  "site": 46675,
  "six": 46705,
  "size": 46716,
  "sized": 46719,
  "sk": 46722,
  "ska": 46726,
  "skaya": 46730,
  "ski": 46740,
  "skilled": 46747,
  "skinned": 46754,
  "sko": 46759,
  "sky": 46763,
  "slav": 46790,
  "sleep": 46799,
  "sleeved": 46807,
  "sma": 46858,
  "small": 46860,
  "smart": 46866,
  "smith": 46884,
  "smo": 46888,
  "smoking": 46893,
  "snecessariamente": 46921,
  "so": 46931,
  "sob": 46947,
  "sobre": 46959,
  "social": 46992,
  "sociodemographic": 47019,
  "soever": 47046,
  "sof": 47047,
  "sofar": 47052,
  "soft": 47072,
  "software": 47077,
  "sol": 47085,
  "sole": 47104,
  "solid": 47126,
  "soluble": 47155,
  "solu\u00e7\u00e3o": 47157,
  "solu\u00e7\u00f5es": 47162,
  "solving": 47175,
  "som": 47178,
  "sombra": 47186,
  "some": 47192,
  "something": 47206,
  "sometimes": 47211,
  "son": 47221,
  "sor": 47257,
  "sorption": 47262,
  "sort": 47273,
  "sos": 47282,
  "source": 47305,
  "south": 47313,
  "sp": 47342,
  "spa": 47347,
  "space": 47351,
  "span": 47367,
  "spatial": 47385,
  "spberry": 47389,
  "spe": 47390,
  "speak": 47392,
  "speaking": 47399,
  "spec": 47406,
  "special": 47409,
  "specific": 47430,
  "spect": 47447,
  "spectroscopia": 47453,
  "speed": 47463,
  "spend": 47472,
  "sphere": 47478,
  "spira": 47502,
  "spire": 47504,
  "spiring": 47505,
  "spirit": 47506,
  "spiritual": 47510,
  "spiro": 47516,
  "sponsored": 47538,
  "spor": 47546,
  "spot": 47555,
  "spread": 47568,
  "spring": 47574,
  "spyware": 47593,
  "sql": 47595,
  "square": 47602,
  "ssa": 47617,
  "sse": 47619,
  "sseis": 47620,
  "ssel": 47621,
  "sseldorf": 47622,
  "ssem": 47623,
  "ssemos": 47624,
  "ssen": 47625,
  "sser": 47626,
  "sses": 47627,
  "ssi": 47628,
  "ssinalado": 47629,
  "sso": 47631,
  "sson": 47633,
  "ssuring": 47634,
  "st": 47635,
  "sta": 47641,
  "stablishment": 47656,
  "stad": 47659,
  "stadt": 47662,
  "stage": 47666,
  "stal": 47682,
  "stalinista": 47684,
  "stamp": 47688,
  "stan": 47693,
  "stance": 47695,
  "stand": 47697,
  "standard": 47701,
  "standing": 47710,
  "star": 47719,
  "start": 47732,
  "stasis": 47747,
  "stat": 47748,
  "state": 47750,
  "statement": 47755,
  "static": 47761,
  "statin": 47764,
  "station": 47766,
  "stay": 47789,
  "ste": 47796,
  "stead": 47798,
  "stein": 47817,
  "sten": 47824,
  "step": 47827,
  "ster": 47838,
  "stereo": 47840,
  "steroid": 47852,
  "stes": 47857,
  "sti": 47865,
  "stick": 47868,
  "still": 47881,
  "stin": 47892,
  "stituir": 47902,
  "stitute": 47903,
  "stitution": 47904,
  "sto": 47905,
  "stock": 47909,
  "ston": 47920,
  "stone": 47921,
  "stop": 47927,
  "store": 47937,
  "storm": 47946,
  "story": 47950,
  "str": 47956,
  "stra": 47961,
  "stral": 47971,
  "strasse": 47983,
  "strat": 47984,
  "strategic": 47986,
  "stre": 48001,
  "stream": 48004,
  "street": 48012,
  "strength": 48016,
  "stress": 48026,
  "stri": 48038,
  "stria": 48039,
  "stricken": 48040,
  "strict": 48041,
  "strike": 48047,
  "string": 48052,
  "stro": 48063,
  "stroke": 48065,
  "strom": 48068,
  "strong": 48069,
  "stru": 48076,
  "structural": 48079,
  "structure": 48082,
  "structured": 48085,
  "strut": 48095,
  "stru\u00edmos": 48094,
  "stud": 48101,
  "student": 48104,
  "studio": 48113,
  "study": 48119,
  "stuff": 48123,
  "style": 48136,
  "styrene": 48146,
  "su": 48147,
  "sua": 48153,
  "sub": 48165,
  "subject": 48197,
  "subsequentemente": 48252,
  "substancialmente": 48280,
  "sucedida": 48340,
  "sucedido": 48342,
  "such": 48352,
  "sudoeste": 48369,
  "sufficiency": 48386,
  "sufficient": 48387,
  "suficiente": 48393,
  "sufici\u00eancia": 48392,
  "suit": 48438,
  "suite": 48445,
  "sul": 48464,
  "sum": 48475,
  "sumi": 48481,
  "summer": 48489,
  "sumo": 48497,
  "sunrise": 48511,
  "super": 48522,
  "supply": 48616,
  "support": 48620,
  "supported": 48624,
  "suppose": 48630,
  "sur": 48654,
  "sure": 48660,
  "surf": 48665,
  "surface": 48668,
  "surgery": 48680,
  "sus": 48739,
  "sustentabilidade": 48785,
  "sville": 48803,
  "sweet": 48826,
  "sweetened": 48830,
  "sy": 48863,
  "sychiatric": 48868,
  "symmetric": 48883,
  "sync": 48900,
  "synthetic": 48924,
  "sys": 48933,
  "system": 48934,
  "s\u00e3o": 45006,
  "s\u00e9rie": 45884,
  "s\u00f3": 46937,
  "s\u00f5es": 47045,
  "t": 48945,
  "ta": 48949,
  "tab": 48959,
  "tabil": 48971,
  "table": 48972,
  "tada": 48999,
  "tadas": 49000,
  "tado": 49001,
  "tados": 49002,
  "tag": 49003,
  "tai": 49012,
  "tail": 49014,
  "tain": 49023,
  "tainment": 49025,
  "tais": 49027,
  "take": 49036,
  "taking": 49044,
  "tal": 49047,
  "tale": 49051,
  "talk": 49066,
  "talvez": 49079,
  "tam": 49083,
  "tamb\u00e9m": 49092,
  "tamento": 49098,
  "tan": 49105,
  "tana": 49109,
  "tando": 49112,
  "tang": 49113,
  "tank": 49120,
  "tano": 49125,
  "tante": 49130,
  "tanto": 49131,
  "tape": 49145,
  "tar": 49152,
  "tarefa": 49161,
  "target": 49165,
  "taria": 49171,
  "tas": 49182,
  "taste": 49188,
  "tation": 49197,
  "tava": 49204,
  "tax": 49207,
  "taxa": 49210,
  "ta\u00e7\u00e3o": 48990,
  "tch": 49230,
  "te": 49235,
  "tea": 49244,
  "teacher": 49249,
  "team": 49258,
  "teau": 49274,
  "tec": 49275,
  "teca": 49278,
  "tech": 49279,
  "technic": 49284,
  "technical": 49285,
  "technology": 49302,
  "tecnologia": 49322,
  "tecnologicamente": 49329,
  "ted": 49336,
  "teen": 49342,
  "tegra": 49352,
  "tei": 49354,
  "teira": 49356,
  "teiro": 49357,
  "teis": 49358,
  "tel": 49360,
  "tele": 49366,
  "telecomunica\u00e7\u00f5es": 49371,
  "tell": 49410,
  "tem": 49416,
  "temp": 49436,
  "temperatura": 49444,
  "temperature": 49448,
  "tempo": 49469,
  "ten": 49486,
  "tende": 49497,
  "tendiam": 49510,
  "tending": 49511,
  "tendo": 49512,
  "tend\u00ea": 49499,
  "tenha": 49521,
  "tens": 49536,
  "tension": 49543,
  "tens\u00e3o": 49539,
  "tenta": 49549,
  "tente": 49565,
  "tention": 49570,
  "ten\u00e7\u00f5es": 49494,
  "ter": 49590,
  "tera": 49596,
  "terapia": 49603,
  "terdisciplinares": 49618,
  "terdisciplinary": 49619,
  "tergovernamental": 49625,
  "tergovernmental": 49626,
  "teria": 49627,
  "term": 49633,
  "termina": 49641,
  "tern": 49666,
  "ternal": 49667,
  "tero": 49669,
  "teroperabilidade": 49670,
  "terra": 49671,
  "terranean": 49680,
  "terrestrial": 49692,
  "terrorism": 49714,
  "terrorismo": 49717,
  "terrorist": 49719,
  "terrorista": 49722,
  "ters": 49727,
  "tes": 49729,
  "test": 49738,
  "teste": 49752,
  "tested": 49755,
  "teve": 49783,
  "tex": 49786,
  "text": 49790,
  "texto": 49800,
  "textual": 49806,
  "th": 49813,
  "tha": 49819,
  "thal": 49823,
  "than": 49826,
  "thank": 49829,
  "that": 49840,
  "the": 49847,
  "their": 49860,
  "then": 49868,
  "ther": 49884,
  "therapeutic": 49885,
  "therapy": 49890,
  "there": 49893,
  "thermal": 49906,
  "these": 49915,
  "thesis": 49919,
  "they": 49923,
  "thi": 49928,
  "thin": 49939,
  "thing": 49942,
  "think": 49948,
  "thinking": 49954,
  "third": 49959,
  "thirds": 49963,
  "this": 49970,
  "tho": 49975,
  "thon": 49980,
  "thor": 49981,
  "those": 49987,
  "though": 49994,
  "thousand": 50002,
  "threat": 50011,
  "threatening": 50016,
  "three": 50020,
  "throp": 50039,
  "through": 50040,
  "thus": 50060,
  "thy": 50065,
  "thyroid": 50068,
  "ti": 50070,
  "tia": 50077,
  "tian": 50081,
  "tic": 50089,
  "tica": 50092,
  "tical": 50094,
  "ticamente": 50095,
  "ticas": 50096,
  "tice": 50097,
  "ticket": 50099,
  "tico": 50105,
  "ticos": 50107,
  "tics": 50108,
  "tida": 50109,
  "tido": 50112,
  "tie": 50115,
  "tier": 50119,
  "ties": 50122,
  "tif": 50124,
  "tific": 50126,
  "tig": 50127,
  "tight": 50131,
  "tik": 50141,
  "til": 50142,
  "tile": 50144,
  "tim": 50152,
  "tima": 50154,
  "time": 50156,
  "timo": 50172,
  "tin": 50176,
  "tina": 50180,
  "tine": 50182,
  "ting": 50183,
  "tinha": 50185,
  "tinho": 50191,
  "tini": 50192,
  "tinib": 50193,
  "tino": 50195,
  "tio": 50200,
  "tion": 50202,
  "tional": 50204,
  "tions": 50205,
  "tip": 50206,
  "tipo": 50215,
  "tique": 50222,
  "tir": 50223,
  "tira": 50225,
  "tire": 50236,
  "tis": 50250,
  "tismo": 50251,
  "tista": 50255,
  "tite": 50263,
  "title": 50264,
  "titled": 50267,
  "titu": 50271,
  "titude": 50272,
  "tiv": 50281,
  "tiva": 50282,
  "tivamente": 50284,
  "tivas": 50285,
  "tive": 50286,
  "tividade": 50298,
  "tivismo": 50299,
  "tivity": 50300,
  "tivo": 50301,
  "tivos": 50304,
  "tizado": 50306,
  "tiza\u00e7\u00e3o": 50305,
  "tl": 50307,
  "tland": 50309,
  "tle": 50310,
  "tner": 50314,
  "to": 50316,
  "todo": 50355,
  "todos": 50359,
  "together": 50366,
  "tol": 50378,
  "tolerance": 50384,
  "tologia": 50395,
  "tology": 50397,
  "tol\u00f3gico": 50396,
  "tom": 50398,
  "toma": 50402,
  "ton": 50434,
  "tone": 50439,
  "too": 50454,
  "tool": 50458,
  "top": 50468,
  "topic": 50473,
  "tor": 50490,
  "tores": 50504,
  "toria": 50505,
  "toriais": 50507,
  "torial": 50508,
  "tors": 50552,
  "tory": 50558,
  "tos": 50560,
  "tosis": 50564,
  "total": 50567,
  "tou": 50578,
  "touch": 50579,
  "tour": 50592,
  "tourism": 50596,
  "tov": 50608,
  "tovetop": 50609,
  "town": 50619,
  "tox": 50624,
  "toxic": 50625,
  "toxin": 50635,
  "toxina": 50636,
  "tr": 50644,
  "tra": 50649,
  "trabalha": 50655,
  "trabalho": 50680,
  "track": 50699,
  "tract": 50710,
  "tradar": 50716,
  "trade": 50717,
  "tradicionalmente": 50733,
  "traditional": 50740,
  "tradu\u00e7\u00e3o": 50746,
  "traffic": 50763,
  "trailer": 50783,
  "trails": 50786,
  "train": 50788,
  "trained": 50791,
  "training": 50796,
  "tran": 50813,
  "trans": 50829,
  "transfer": 50850,
  "transmissores": 50939,
  "trap": 50994,
  "trar": 51000,
  "tras": 51002,
  "tratamento": 51020,
  "tration": 51028,
  "traumatic": 51033,
  "traum\u00e1tico": 51036,
  "travel": 51043,
  "trav\u00e9s": 51065,
  "tra\u00e7\u00e3o": 50689,
  "tre": 51079,
  "treat": 51091,
  "treated": 51094,
  "treatment": 51100,
  "tree": 51107,
  "trend": 51139,
  "tresses": 51152,
  "tri": 51159,
  "trial": 51166,
  "tribu": 51182,
  "tribui\u00e7\u00e3o": 51184,
  "tribute": 51196,
  "tributing": 51199,
  "tribution": 51200,
  "tric": 51202,
  "trica": 51203,
  "trina": 51234,
  "trio": 51241,
  "trip": 51243,
  "trix": 51266,
  "triz": 51267,
  "tro": 51268,
  "trofia": 51277,
  "tron": 51284,
  "tronco": 51286,
  "tronic": 51288,
  "trop": 51293,
  "troph": 51297,
  "trophic": 51298,
  "tropi": 51302,
  "tru": 51324,
  "true": 51332,
  "trum": 51338,
  "trust": 51347,
  "truth": 51354,
  "try": 51360,
  "tr\u00eas": 51148,
  "tr\u00f3pico": 51307,
  "ts": 51365,
  "tsch": 51369,
  "tsu": 51371,
  "tt": 51374,
  "tta": 51377,
  "tte": 51378,
  "tten": 51379,
  "tter": 51380,
  "ttering": 51381,
  "tti": 51382,
  "tting": 51383,
  "ttle": 51384,
  "tto": 51385,
  "tty": 51386,
  "tu": 51387,
  "tua": 51393,
  "tual": 51397,
  "tua\u00e7\u00e3o": 51396,
  "tuba": 51402,
  "tube": 51405,
  "tudo": 51421,
  "tum": 51433,
  "tun": 51444,
  "tune": 51447,
  "tung": 51452,
  "tuoso": 51463,
  "tur": 51464,
  "tura": 51468,
  "turas": 51470,
  "ture": 51482,
  "turing": 51487,
  "turismo": 51488,
  "turn": 51507,
  "turquesa": 51518,
  "tus": 51524,
  "tu\u00e1rio": 51398,
  "tv": 51534,
  "tw": 51538,
  "two": 51564,
  "ty": 51570,
  "type": 51576,
  "typical": 51584,
  "tz": 51598,
  "t\u00e1": 48955,
  "t\u00e1ria": 49172,
  "t\u00e1rio": 49179,
  "t\u00e1rios": 49180,
  "t\u00e1vel": 49205,
  "t\u00e2ncia": 49110,
  "t\u00e3": 48958,
  "t\u00e3o": 49138,
  "t\u00e9": 49241,
  "t\u00e9cnica": 49311,
  "t\u00e9cnico": 49317,
  "t\u00e9rio": 49632,
  "t\u00ea": 49242,
  "t\u00eam": 49421,
  "t\u00ed": 50076,
  "t\u00edpica": 50209,
  "t\u00edpico": 50212,
  "t\u00edssimo": 50252,
  "t\u00edtulo": 50276,
  "t\u00f3": 50322,
  "t\u00f3pica": 50476,
  "t\u00f3pico": 50478,
  "t\u00f3ria": 50506,
  "t\u00f3rias": 50509,
  "t\u00f3rio": 50510,
  "t\u00f3rios": 50511,
  "t\u00f3xico": 50632,
  "t\u00f4nica": 50445,
  "t\u00f4nico": 50446,
  "t\u00f5es": 50365,
  "t\u00fa": 51392,
  "u": 51599,
  "ua": 51604,
  "uais": 51606,
  "ual": 51607,
  "uan": 51609,
  "uary": 51610,
  "ub": 51611,
  "uba": 51613,
  "ube": 51614,
  "uber": 51615,
  "ubi": 51617,
  "uble": 51620,
  "uc": 51622,
  "uca": 51625,
  "ucci": 51626,
  "uce": 51627,
  "uch": 51628,
  "uchi": 51630,
  "uck": 51631,
  "uco": 51633,
  "ud": 51637,
  "uda": 51639,
  "ude": 51640,
  "udge": 51641,
  "udi": 51642,
  "udo": 51643,
  "ue": 51644,
  "uel": 51648,
  "uela": 51649,
  "uer": 51650,
  "uf": 51651,
  "uff": 51655,
  "uffle": 51656,
  "ug": 51658,
  "uga": 51660,
  "uge": 51662,
  "ugger": 51663,
  "ugh": 51664,
  "ugmented": 51666,
  "ugu": 51667,
  "uh": 51668,
  "ui": 51671,
  "uil": 51674,
  "uit": 51676,
  "uitinete": 51677,
  "uk": 51678,
  "uka": 51681,
  "uke": 51682,
  "uki": 51683,
  "uku": 51686,
  "ul": 51687,
  "ula": 51692,
  "ulado": 51696,
  "ular": 51697,
  "ulating": 51698,
  "ulation": 51699,
  "ulatory": 51700,
  "ula\u00e7\u00e3o": 51694,
  "ula\u00e7\u00f5es": 51695,
  "uld": 51704,
  "ule": 51705,
  "ules": 51706,
  "ulf": 51707,
  "uli": 51708,
  "ulin": 51709,
  "ull": 51710,
  "ulla": 51711,
  "ullah": 51712,
  "ulo": 51713,
  "ulous": 51714,
  "uls\u00e3o": 51716,
  "ult": 51717,
  "ultidisciplinary": 51720,
  "ulu": 51744,
  "ulus": 51745,
  "um": 51746,
  "uma": 51752,
  "umb": 51758,
  "umba": 51759,
  "ume": 51763,
  "umen": 51764,
  "umerous": 51765,
  "umi": 51766,
  "ummies": 51770,
  "umming": 51771,
  "ummy": 51772,
  "ump": 51773,
  "umulative": 51774,
  "un": 51775,
  "una": 51782,
  "unch": 51809,
  "unconstitutional": 51823,
  "unction": 51829,
  "und": 51830,
  "unda": 51832,
  "under": 51834,
  "understand": 51856,
  "undo": 51876,
  "une": 51880,
  "ung": 51910,
  "uni": 51919,
  "unic": 51926,
  "unica": 51927,
  "unidade": 51937,
  "unidense": 51943,
  "union": 51972,
  "unit": 51982,
  "univers": 51996,
  "universal": 51998,
  "unk": 52023,
  "unless": 52030,
  "uno": 52051,
  "unsaturated": 52075,
  "unt": 52087,
  "until": 52089,
  "uous": 52107,
  "up": 52108,
  "upon": 52136,
  "ups": 52143,
  "ur": 52150,
  "ura": 52154,
  "ural": 52156,
  "uration": 52163,
  "urban": 52164,
  "ure": 52174,
  "ured": 52176,
  "ures": 52177,
  "urg": 52178,
  "urge": 52179,
  "urgent": 52185,
  "uri": 52194,
  "uria": 52196,
  "urine": 52204,
  "uring": 52206,
  "uro": 52208,
  "urobolin": 52210,
  "urs": 52211,
  "ursuant": 52214,
  "uru": 52215,
  "ury": 52219,
  "us": 52220,
  "usa": 52226,
  "uscultadores": 52251,
  "use": 52254,
  "used": 52260,
  "user": 52269,
  "ush": 52277,
  "ushi": 52279,
  "using": 52284,
  "uso": 52288,
  "uspicious": 52295,
  "ussi": 52296,
  "ust": 52298,
  "uster": 52300,
  "ustin": 52301,
  "usually": 52305,
  "ut": 52317,
  "uta": 52319,
  "utation": 52321,
  "ute": 52323,
  "uted": 52324,
  "uter": 52329,
  "uti": 52333,
  "util": 52335,
  "utiliza": 52348,
  "ution": 52378,
  "uto": 52380,
  "utodetermina\u00e7\u00e3o": 52381,
  "utonomous": 52382,
  "utter": 52387,
  "utu": 52391,
  "utz": 52392,
  "uv": 52393,
  "ux": 52398,
  "uz": 52400,
  "uzhou": 52403,
  "uzu": 52404,
  "uzzle": 52405,
  "u\u00ed": 51673,
  "v": 52406,
  "va": 52410,
  "vac": 52420,
  "vacu": 52438,
  "vada": 52442,
  "vado": 52443,
  "val": 52458,
  "vale": 52463,
  "valent": 52469,
  "valente": 52470,
  "valia": 52476,
  "valid": 52478,
  "validating": 52489,
  "valor": 52503,
  "valoriza\u00e7\u00f5es": 52510,
  "valuation": 52515,
  "value": 52517,
  "valuing": 52522,
  "vam": 52529,
  "vamos": 52530,
  "van": 52538,
  "vant": 52551,
  "vantage": 52552,
  "var": 52563,
  "vari": 52574,
  "varia": 52576,
  "vas": 52624,
  "vascular": 52627,
  "vation": 52639,
  "vc": 52648,
  "ve": 52650,
  "ved": 52662,
  "vehicle": 52690,
  "veis": 52707,
  "veja": 52709,
  "vel": 52716,
  "velmente": 52729,
  "vem": 52736,
  "ven": 52742,
  "venda": 52758,
  "venir": 52798,
  "vent": 52803,
  "venta": 52806,
  "vention": 52811,
  "vento": 52812,
  "venture": 52821,
  "ven\u00e7\u00e3o": 52746,
  "ver": 52829,
  "verb": 52840,
  "verbal": 52843,
  "verdade": 52848,
  "verde": 52860,
  "veritable": 52893,
  "vermelha": 52895,
  "vermelho": 52900,
  "vern": 52905,
  "vers": 52911,
  "versa": 52912,
  "verse": 52924,
  "version": 52930,
  "verso": 52934,
  "vers\u00e3o": 52916,
  "vert": 52939,
  "vertebra": 52940,
  "vertebral": 52943,
  "vertebrate": 52945,
  "verted": 52946,
  "very": 52952,
  "ves": 52957,
  "vest": 52963,
  "vet": 52979,
  "vey": 52996,
  "vez": 52997,
  "vi": 53001,
  "via": 53008,
  "vian": 53036,
  "vic": 53055,
  "vice": 53058,
  "vid": 53078,
  "vida": 53079,
  "vidas": 53083,
  "vide": 53085,
  "video": 53088,
  "videoconfer\u00eancia": 53096,
  "vido": 53103,
  "vie": 53106,
  "vier": 53111,
  "view": 53121,
  "vig": 53134,
  "vik": 53157,
  "vil": 53160,
  "vila": 53162,
  "vilha": 53169,
  "villa": 53170,
  "ville": 53179,
  "vin": 53185,
  "vina": 53187,
  "vinda": 53201,
  "vindas": 53203,
  "vindo": 53205,
  "vindos": 53207,
  "ving": 53214,
  "vinha": 53219,
  "vio": 53233,
  "violence": 53247,
  "violent": 53253,
  "viol\u00eancia": 53250,
  "vir": 53268,
  "virtual": 53296,
  "virus": 53309,
  "vis": 53316,
  "visa": 53321,
  "vision": 53340,
  "visit": 53348,
  "visor": 53380,
  "vista": 53382,
  "visto": 53387,
  "visual": 53392,
  "visualiza\u00e7\u00e3o": 53396,
  "vis\u00e3o": 53326,
  "vis\u00edvel": 53374,
  "vit": 53408,
  "vita": 53410,
  "vitamin": 53417,
  "viv": 53437,
  "viva": 53439,
  "viz": 53468,
  "vo": 53479,
  "voc": 53489,
  "vocation": 53501,
  "voca\u00e7\u00e3o": 53494,
  "voc\u00ea": 53507,
  "voice": 53516,
  "voking": 53523,
  "vol": 53524,
  "volt": 53545,
  "volta": 53546,
  "voltage": 53551,
  "volu": 53566,
  "volume": 53567,
  "volv": 53585,
  "volve": 53586,
  "von": 53592,
  "vor": 53604,
  "vora": 53606,
  "vos": 53608,
  "vote": 53621,
  "vou": 53632,
  "voy": 53642,
  "voz": 53646,
  "vr": 53654,
  "vre": 53657,
  "vu": 53660,
  "vul": 53662,
  "vy": 53676,
  "v\u00e1": 52416,
  "v\u00e3o": 52558,
  "v\u00e9": 52656,
  "v\u00ea": 52657,
  "v\u00ed": 53007,
  "v\u00edamos": 53035,
  "v\u00eddeo": 53092,
  "v\u00edrus": 53312,
  "w": 53677,
  "wa": 53681,
  "wage": 53688,
  "wah": 53694,
  "wai": 53695,
  "wake": 53706,
  "wal": 53710,
  "wald": 53712,
  "walk": 53716,
  "wall": 53725,
  "wan": 53741,
  "wang": 53747,
  "war": 53756,
  "ward": 53762,
  "ware": 53767,
  "warm": 53773,
  "was": 53803,
  "wash": 53807,
  "watch": 53822,
  "watches": 53828,
  "water": 53833,
  "watt": 53845,
  "wave": 53848,
  "way": 53856,
  "ways": 53861,
  "we": 53867,
  "wealth": 53881,
  "weapon": 53886,
  "wear": 53892,
  "weather": 53896,
  "web": 53902,
  "website": 53914,
  "wed": 53918,
  "wee": 53923,
  "week": 53924,
  "wei": 53933,
  "weight": 53938,
  "wel": 53945,
  "well": 53957,
  "wen": 53967,
  "went": 53970,
  "wer": 53972,
  "were": 53973,
  "west": 53979,
  "western": 53983,
  "what": 53994,
  "wheel": 54006,
  "when": 54012,
  "where": 54018,
  "whether": 54030,
  "which": 54036,
  "while": 54042,
  "white": 54057,
  "who": 54062,
  "why": 54081,
  "wi": 54086,
  "wich": 54092,
  "wick": 54093,
  "wide": 54097,
  "width": 54110,
  "wife": 54115,
  "wikipedia": 54128,
  "will": 54140,
  "win": 54154,
  "wind": 54159,
  "wine": 54170,
  "wing": 54174,
  "winning": 54181,
  "winter": 54188,
  "wire": 54193,
  "wise": 54204,
  "witch": 54215,
  "with": 54220,
  "without": 54233,
  "witz": 54245,
  "wn": 54249,
  "wo": 54251,
  "woman": 54262,
  "women": 54266,
  "won": 54270,
  "woo": 54282,
  "wood": 54285,
  "word": 54296,
  "work": 54304,
  "workers": 54311,
  "working": 54316,
  "works": 54324,
  "world": 54333,
  "worm": 54342,
  "worth": 54362,
  "worthiness": 54365,
  "worthy": 54368,
  "would": 54370,
  "woven": 54379,
  "wr": 54386,
  "write": 54404,
  "writer": 54407,
  "writing": 54412,
  "written": 54416,
  "wrote": 54422,
  "ws": 54425,
  "www": 54434,
  "wy": 54436,
  "wyn": 54439,
  "x": 54442,
  "xa": 54446,
  "xe": 54453,
  "xel": 54454,
  "xi": 54461,
  "xia": 54464,
  "xial": 54465,
  "xico": 54470,
  "xie": 54471,
  "xin": 54475,
  "xing": 54477,
  "xo": 54485,
  "xodo": 54486,
  "xon": 54487,
  "xtremamente": 54491,
  "xx": 54497,
  "xxx": 54501,
  "xy": 54505,
  "y": 54506,
  "ya": 54510,
  "yahoo": 54515,
  "yama": 54520,
  "yan": 54523,
  "yana": 54525,
  "yang": 54526,
  "yard": 54530,
  "ye": 54535,
  "year": 54541,
  "yellow": 54551,
  "yeong": 54558,
  "yer": 54560,
  "yes": 54562,
  "yi": 54572,
  "ying": 54577,
  "yl": 54578,
  "yle": 54579,
  "ym": 54580,
  "yn": 54581,
  "yna": 54582,
  "ynchronous": 54583,
  "yne": 54584,
  "yo": 54585,
  "yon": 54597,
  "you": 54604,
  "young": 54609,
  "your": 54616,
  "yp": 54630,
  "yr": 54631,
  "ys": 54632,
  "yu": 54634,
  "yuan": 54636,
  "z": 54645,
  "za": 54649,
  "zan": 54660,
  "zano": 54663,
  "zar": 54665,
  "zawa": 54670,
  "ze": 54671,
  "zed": 54680,
  "zel": 54682,
  "zen": 54687,
  "zer": 54691,
  "zero": 54693,
  "zes": 54696,
  "zh": 54698,
  "zhi": 54704,
  "zhou": 54706,
  "zi": 54708,
  "zia": 54710,
  "zie": 54711,
  "zier": 54713,
  "zina": 54718,
  "zing": 54722,
  "zinha": 54723,
  "zinho": 54724,
  "zio": 54725,
  "zo": 54734,
  "zol": 54739,
  "zon": 54743,
  "zona": 54744,
  "zone": 54748,
  "zu": 54761,
  "zy": 54768,
  "zz": 54769,
  "zza": 54771,
  "zzi": 54772,
  "zzo": 54773,
  "zzy": 54774,
  "\u00ab": 69,
  "\u00b0": 2,
  "\u00bb": 70,
  "\u00bb)": 73,
  "\u00bb,": 71,
  "\u00bb.": 72,
  "\u00c1": 1760,
  "\u00c1RIA": 5107,
  "\u00c1RIO": 5117,
  "\u00c9": 17365,
  "\u00e0": 1762,
  "\u00e1": 1758,
  "\u00e1ceo": 2193,
  "\u00e1cia": 2252,
  "\u00e1cido": 2265,
  "\u00e1gua": 3214,
  "\u00e1l": 3346,
  "\u00e1lia": 3528,
  "\u00e1mos": 3986,
  "\u00e1n": 4030,
  "\u00e1rea": 5065,
  "\u00e1ria": 5106,
  "\u00e1rias": 5110,
  "\u00e1rio": 5116,
  "\u00e1rios": 5118,
  "\u00e1s": 5380,
  "\u00e1sico": 5424,
  "\u00e1ssemos": 5502,
  "\u00e1stica": 5662,
  "\u00e1stico": 5663,
  "\u00e1tica": 5779,
  "\u00e1tico": 5780,
  "\u00e1ticos": 5781,
  "\u00e1vamos": 6266,
  "\u00e1veis": 6292,
  "\u00e1vel": 6293,
  "\u00e2": 1764,
  "\u00e2m": 3789,
  "\u00e2mica": 3939,
  "\u00e2mico": 3940,
  "\u00e2n": 4031,
  "\u00e2ncia": 4122,
  "\u00e2nea": 4169,
  "\u00e2nia": 4235,
  "\u00e2nica": 4236,
  "\u00e2nico": 4237,
  "\u00e2nio": 4260,
  "\u00e3": 1765,
  "\u00e3o": 4505,
  "\u00e7": 8465,
  "\u00e7a": 8472,
  "\u00e7ada": 8537,
  "\u00e7ado": 8555,
  "\u00e7am": 8696,
  "\u00e7amento": 8727,
  "\u00e7ao": 8909,
  "\u00e7ar": 9007,
  "\u00e7as": 9228,
  "\u00e7o": 10817,
  "\u00e7os": 13357,
  "\u00e7ou": 13414,
  "\u00e7u": 13932,
  "\u00e7\u00e1": 8476,
  "\u00e7\u00e3o": 8912,
  "\u00e7\u00f5es": 10913,
  "\u00e9": 17363,
  "\u00e9e": 17638,
  "\u00e9ia": 17747,
  "\u00e9is": 17767,
  "\u00e9l": 17788,
  "\u00e9lia": 17956,
  "\u00e9lio": 17978,
  "\u00e9m": 18023,
  "\u00e9n": 18283,
  "\u00e9nio": 18606,
  "\u00e9r": 19024,
  "\u00e9ri": 19062,
  "\u00e9ria": 19064,
  "\u00e9rico": 19067,
  "\u00e9rio": 19073,
  "\u00e9s": 19131,
  "\u00e9simo": 19300,
  "\u00e9tica": 19928,
  "\u00e9tico": 19931,
  "\u00e9ticos": 19933,
  "\u00e9u": 19961,
  "\u00ea": 17367,
  "\u00eamica": 18127,
  "\u00ean": 18284,
  "\u00eancia": 18350,
  "\u00eancias": 18353,
  "\u00eanica": 18602,
  "\u00eanio": 18607,
  "\u00eas": 19132,
  "\u00ed": 25877,
  "\u00eda": 25882,
  "\u00edaco": 25885,
  "\u00edamos": 25891,
  "\u00edcia": 25963,
  "\u00edcio": 25967,
  "\u00edcola": 25977,
  "\u00edcula": 25993,
  "\u00edculo": 25995,
  "\u00eddeo": 26082,
  "\u00eddeos": 26089,
  "\u00eddica": 26094,
  "\u00eddico": 26095,
  "\u00eddio": 26099,
  "\u00eddo": 26112,
  "\u00edduo": 26126,
  "\u00edfera": 26156,
  "\u00edfero": 26157,
  "\u00edfic": 26162,
  "\u00edlia": 26274,
  "\u00edlico": 26278,
  "\u00edlio": 26283,
  "\u00edmetro": 26417,
  "\u00edn": 26733,
  "\u00edna": 26736,
  "\u00ednea": 27121,
  "\u00edneo": 27128,
  "\u00ednico": 27423,
  "\u00ednio": 27432,
  "\u00edris": 28337,
  "\u00eds": 28402,
  "\u00edsmo": 28464,
  "\u00edssima": 28499,
  "\u00edssimo": 28500,
  "\u00edstica": 28528,
  "\u00edstico": 28530,
  "\u00edsticos": 28531,
  "\u00edtica": 28577,
  "\u00edtico": 28578,
  "\u00edveis": 28616,
  "\u00edvel": 28617,
  "\u00f3": 35320,
  "\u00f3citos": 35567,
  "\u00f3dico": 35631,
  "\u00f3dio": 35632,
  "\u00f3dromo": 35642,
  "\u00f3f": 35658,
  "\u00f3filo": 35738,
  "\u00f3geno": 35748,
  "\u00f3grafo": 35752,
  "\u00f3ico": 35770,
  "\u00f3ide": 35772,
  "\u00f3ides": 35773,
  "\u00f3is": 35782,
  "\u00f3lica": 35842,
  "\u00f3lico": 35843,
  "\u00f3lise": 35853,
  "\u00f3loga": 35864,
  "\u00f3logo": 35876,
  "\u00f3logos": 35877,
  "\u00f3metro": 35908,
  "\u00f3mica": 35912,
  "\u00f3n": 35932,
  "\u00f3nia": 35965,
  "\u00f3nica": 35969,
  "\u00f3nico": 35971,
  "\u00f3nio": 35975,
  "\u00f3podes": 36109,
  "\u00f3polis": 36112,
  "\u00f3r": 36200,
  "\u00f3ria": 36347,
  "\u00f3rica": 36348,
  "\u00f3rico": 36349,
  "\u00f3rio": 36403,
  "\u00f3s": 36437,
  "\u00f3tica": 36498,
  "\u00f3tico": 36500,
  "\u00f3xido": 36730,
  "\u00f4": 35322,
  "\u00f4metro": 35909,
  "\u00f4mica": 35913,
  "\u00f4mico": 35914,
  "\u00f4n": 35933,
  "\u00f4nia": 35966,
  "\u00f4nica": 35970,
  "\u00f4nico": 35972,
  "\u00f4nicos": 35973,
  "\u00f4nimo": 35974,
  "\u00f4nio": 35976,
  "\u00f5": 35323,
  "\u00f5es": 35649,
  "\u00fa": 51603,
  "\u00fal": 51691,
  "\u00fan": 51781,
  "\u00fargica": 52192,
  "\u00faria": 52197,
  "\u00fas": 52225,
  "\u2018": 46,
  "\u2019": 47,
  "\u2019,": 48,
  "\u2019.": 49,
  "\u2019\u201d": 50,
  "\u201c": 59,
  "\u201c,": 60,
  "\u201c.": 61,
  "\u201d": 62,
  "\u201d)": 67,
  "\u201d).": 68,
  "\u201d,": 63,
  "\u201d.": 66,
  "\u201d;": 64,
  "\u201d?": 65,
  "\u2581": 98,
  "\u2581\"": 112,
  "\u2581\"...": 113,
  "\u2581\"[": 114,
  "\u2581#": 144,
  "\u2581#1": 282,
  "\u2581#2": 753,
  "\u2581#3": 1065,
  "\u2581#4": 1207,
  "\u2581#5": 1320,
  "\u2581#6": 1424,
  "\u2581#7": 1515,
  "\u2581#8": 1598,
  "\u2581#9": 1674,
  "\u2581$": 136,
  "\u2581$$": 137,
  "\u2581$$$": 138,
  "\u2581$$$$": 139,
  "\u2581$0": 153,
  "\u2581$1": 281,
  "\u2581$1,000": 326,
  "\u2581$1.2": 400,
  "\u2581$1.5": 498,
  "\u2581$10": 307,
  "\u2581$10,000": 332,
  "\u2581$100": 320,
  "\u2581$100,000": 336,
  "\u2581$12": 399,
  "\u2581$15": 497,
  "\u2581$150": 511,
  "\u2581$2": 752,
  "\u2581$20": 780,
  "\u2581$200": 789,
  "\u2581$25": 998,
  "\u2581$3": 1064,
  "\u2581$30": 1088,
  "\u2581$300": 1096,
  "\u2581$4": 1206,
  "\u2581$40": 1228,
  "\u2581$5": 1319,
  "\u2581$50": 1339,
  "\u2581$500": 1348,
  "\u2581$6": 1423,
  "\u2581$60": 1441,
  "\u2581$7": 1514,
  "\u2581$8": 1597,
  "\u2581$9": 1673,
  "\u2581%": 145,
  "\u2581%1": 283,
  "\u2581&": 143,
  "\u2581'": 109,
  "\u2581''": 110,
  "\u2581(": 122,
  "\u2581(\"": 125,
  "\u2581($": 128,
  "\u2581($1": 276,
  "\u2581($10-": 305,
  "\u2581($10-30": 345,
  "\u2581($250": 1008,
  "\u2581($250-": 1009,
  "\u2581($30-": 1087,
  "\u2581(*)": 129,
  "\u2581(+": 130,
  "\u2581(...)": 123,
  "\u2581(0": 151,
  "\u2581(0)": 152,
  "\u2581(1": 275,
  "\u2581(1)": 278,
  "\u2581(10": 304,
  "\u2581(10)": 306,
  "\u2581(11": 362,
  "\u2581(11)": 363,
  "\u2581(12": 397,
  "\u2581(12)": 398,
  "\u2581(13": 436,
  "\u2581(13)": 437,
  "\u2581(14": 469,
  "\u2581(15": 496,
  "\u2581(16": 525,
  "\u2581(17": 545,
  "\u2581(18": 565,
  "\u2581(19": 599,
  "\u2581(196": 665,
  "\u2581(1996)": 724,
  "\u2581(1997)": 728,
  "\u2581(1999)": 736,
  "\u2581(1:": 277,
  "\u2581(2": 749,
  "\u2581(2)": 750,
  "\u2581(20": 779,
  "\u2581(2000)": 794,
  "\u2581(2001)": 809,
  "\u2581(2002)": 814,
  "\u2581(2003)": 820,
  "\u2581(2004)": 826,
  "\u2581(2005)": 832,
  "\u2581(2006)": 838,
  "\u2581(2007)": 844,
  "\u2581(2008)": 850,
  "\u2581(2009)": 856,
  "\u2581(2010)": 862,
  "\u2581(2011)": 868,
  "\u2581(2012)": 874,
  "\u2581(2013)": 880,
  "\u2581(2014)": 886,
  "\u2581(2015)": 892,
  "\u2581(2016)": 898,
  "\u2581(2017)": 905,
  "\u2581(25": 997,
  "\u2581(3": 1061,
  "\u2581(3)": 1062,
  "\u2581(30": 1086,
  "\u2581(4": 1203,
  "\u2581(4)": 1204,
  "\u2581(5": 1316,
  "\u2581(5)": 1317,
  "\u2581(6": 1420,
  "\u2581(6)": 1421,
  "\u2581(7": 1511,
  "\u2581(7)": 1512,
  "\u2581(8": 1594,
  "\u2581(8)": 1595,
  "\u2581(9": 1671,
  "\u2581(9)": 1672,
  "\u2581(\u00ab": 127,
  "\u2581(\u2018": 124,
  "\u2581(\u201c": 126,
  "\u2581)": 131,
  "\u2581*": 140,
  "\u2581**": 141,
  "\u2581***": 142,
  "\u2581+": 146,
  "\u2581+0": 154,
  "\u2581+1": 284,
  "\u2581+2": 754,
  "\u2581+22...+2": 957,
  "\u2581+23,": 964,
  "\u2581+24...+2": 989,
  "\u2581+3": 1066,
  "\u2581+7...+": 1516,
  "\u2581-": 103,
  "\u2581--": 104,
  "\u2581---": 105,
  "\u2581...": 108,
  "\u2581/": 106,
  "\u2581//": 107,
  "\u25810": 150,
  "\u25810%": 156,
  "\u25810,": 155,
  "\u25810,01": 186,
  "\u25810,05": 191,
  "\u25810,1": 199,
  "\u25810,2": 209,
  "\u25810,3": 216,
  "\u25810,5": 230,
  "\u25810,6": 239,
  "\u25810,8": 254,
  "\u25810,9": 259,
  "\u25810-4": 224,
  "\u25810-7": 246,
  "\u25810.0": 165,
  "\u25810.00": 172,
  "\u25810.001": 184,
  "\u25810.01": 187,
  "\u25810.02": 190,
  "\u25810.05": 192,
  "\u25810.1": 200,
  "\u25810.2": 210,
  "\u25810.3": 217,
  "\u25810.4": 225,
  "\u25810.5": 231,
  "\u25810.6": 240,
  "\u25810.7": 247,
  "\u25810.8": 255,
  "\u25810.9": 260,
  "\u258100": 164,
  "\u2581000": 171,
  "\u258101": 198,
  "\u258102": 208,
  "\u258103": 215,
  "\u258104": 223,
  "\u258105": 229,
  "\u258106": 238,
  "\u258107": 245,
  "\u258108": 253,
  "\u258109": 258,
  "\u25811": 274,
  "\u25811%": 290,
  "\u25811)": 289,
  "\u25811,": 286,
  "\u25811,0": 308,
  "\u25811,000": 327,
  "\u25811,1": 364,
  "\u25811,2": 402,
  "\u25811,200": 414,
  "\u25811,3": 439,
  "\u25811,300": 451,
  "\u25811,4": 470,
  "\u25811,400": 479,
  "\u25811,5": 499,
  "\u25811,500": 513,
  "\u25811,6": 526,
  "\u25811,8": 566,
  "\u25811-": 285,
  "\u25811-2": 401,
  "\u25811-3": 438,
  "\u25811.": 288,
  "\u25811.0": 309,
  "\u25811.000": 328,
  "\u25811.1": 366,
  "\u25811.2": 404,
  "\u25811.200": 415,
  "\u25811.3": 441,
  "\u25811.3.1": 453,
  "\u25811.4": 471,
  "\u25811.5": 500,
  "\u25811.500": 514,
  "\u25811.6": 527,
  "\u25811.7": 546,
  "\u25811.8": 567,
  "\u25811.9": 600,
  "\u25811/2": 403,
  "\u25811/3": 440,
  "\u258110": 303,
  "\u258110%": 311,
  "\u258110,000": 333,
  "\u258110-": 310,
  "\u258110-15": 342,
  "\u258110.000": 334,
  "\u2581100": 319,
  "\u2581100%": 321,
  "\u2581100,000": 337,
  "\u2581100.000": 338,
  "\u25811000": 325,
  "\u2581101": 340,
  "\u2581102": 343,
  "\u2581103": 344,
  "\u2581104": 347,
  "\u2581105": 349,
  "\u2581106": 350,
  "\u2581107": 351,
  "\u2581108": 352,
  "\u25811080": 353,
  "\u2581109": 355,
  "\u258110:00": 329,
  "\u258110:1": 341,
  "\u258110:30": 346,
  "\u258111": 361,
  "\u258111%": 370,
  "\u258111,": 367,
  "\u258111-14": 379,
  "\u258111.": 369,
  "\u2581110": 375,
  "\u2581111": 378,
  "\u2581112": 380,
  "\u2581113": 381,
  "\u2581114": 382,
  "\u2581115": 383,
  "\u2581116": 384,
  "\u2581117": 385,
  "\u2581118": 386,
  "\u2581119": 387,
  "\u258111:": 368,
  "\u258111:00": 376,
  "\u258112": 396,
  "\u258112%": 408,
  "\u258112,": 406,
  "\u258112,000": 417,
  "\u258112-": 405,
  "\u2581120": 412,
  "\u25811200": 413,
  "\u2581121": 418,
  "\u2581123": 421,
  "\u25811234/2007": 422,
  "\u2581124": 423,
  "\u2581125": 425,
  "\u2581126": 426,
  "\u2581127": 427,
  "\u2581128": 429,
  "\u2581129": 430,
  "\u258112:": 407,
  "\u258112:00": 416,
  "\u258112:1": 419,
  "\u258113": 435,
  "\u258113%": 445,
  "\u258113,": 442,
  "\u258113.": 444,
  "\u2581130": 449,
  "\u25811300": 450,
  "\u2581131": 452,
  "\u2581132": 454,
  "\u2581133": 455,
  "\u2581134": 456,
  "\u2581135": 458,
  "\u2581136": 459,
  "\u2581137": 460,
  "\u2581138": 461,
  "\u2581139": 462,
  "\u258113:": 443,
  "\u258114": 468,
  "\u258114%": 474,
  "\u258114,": 472,
  "\u2581140": 478,
  "\u258114001": 481,
  "\u2581141": 483,
  "\u2581144": 485,
  "\u2581145": 486,
  "\u2581146": 487,
  "\u2581147": 488,
  "\u2581148": 489,
  "\u258114:": 473,
  "\u258115": 495,
  "\u258115%": 504,
  "\u258115,": 502,
  "\u258115,000": 515,
  "\u258115-": 501,
  "\u2581150": 510,
  "\u2581150,000": 516,
  "\u25811500": 512,
  "\u2581155": 517,
  "\u2581156": 518,
  "\u258115:": 503,
  "\u258116": 524,
  "\u258116%": 530,
  "\u258116,": 528,
  "\u2581160": 534,
  "\u25811600": 535,
  "\u2581165": 537,
  "\u2581168": 538,
  "\u258116:": 529,
  "\u258117": 544,
  "\u258117%": 548,
  "\u258117,": 547,
  "\u2581170": 553,
  "\u2581175": 554,
  "\u2581176": 555,
  "\u2581178": 556,
  "\u258118": 564,
  "\u258118%": 569,
  "\u258118,": 568,
  "\u2581180": 573,
  "\u25811800": 574,
  "\u25811848": 576,
  "\u2581185": 577,
  "\u25811850": 578,
  "\u25811860": 579,
  "\u25811861": 580,
  "\u25811870": 581,
  "\u25811880": 582,
  "\u25811885": 583,
  "\u25811888": 584,
  "\u25811889": 585,
  "\u25811890": 586,
  "\u25811895": 587,
  "\u25811896": 588,
  "\u25811897": 589,
  "\u25811898": 590,
  "\u25811899": 591,
  "\u258118:00": 575,
  "\u258119": 598,
  "\u258119,": 601,
  "\u2581190": 603,
  "\u25811900": 604,
  "\u25811901": 605,
  "\u25811902": 606,
  "\u25811903": 607,
  "\u25811904": 608,
  "\u25811905": 609,
  "\u25811906": 610,
  "\u25811907": 611,
  "\u25811908": 612,
  "\u25811909": 613,
  "\u25811910": 614,
  "\u25811911": 615,
  "\u25811912": 616,
  "\u25811913": 617,
  "\u25811914": 618,
  "\u25811915": 619,
  "\u25811916": 620,
  "\u25811917": 621,
  "\u25811918": 622,
  "\u25811919": 623,
  "\u25811920": 624,
  "\u25811921": 625,
  "\u25811922": 626,
  "\u25811923": 627,
  "\u25811924": 628,
  "\u25811925": 629,
  "\u25811926": 630,
  "\u25811927": 631,
  "\u25811928": 632,
  "\u25811929": 633,
  "\u25811930": 634,
  "\u25811931": 635,
  "\u25811932": 636,
  "\u25811933": 637,
  "\u25811934": 638,
  "\u25811935": 639,
  "\u25811936": 640,
  "\u25811937": 641,
  "\u25811938": 642,
  "\u25811939": 643,
  "\u25811940": 644,
  "\u25811941": 645,
  "\u25811942": 646,
  "\u25811943": 647,
  "\u25811944": 648,
  "\u25811945": 649,
  "\u25811946": 650,
  "\u25811947": 651,
  "\u25811948": 652,
  "\u25811949": 653,
  "\u25811950": 654,
  "\u25811951": 655,
  "\u25811952": 656,
  "\u25811953": 657,
  "\u25811954": 658,
  "\u25811955": 659,
  "\u25811956": 660,
  "\u25811957": 661,
  "\u25811958": 662,
  "\u25811959": 663,
  "\u2581196": 664,
  "\u25811960": 666,
  "\u25811960,": 667,
  "\u25811961": 668,
  "\u25811962": 669,
  "\u25811963": 670,
  "\u25811964": 671,
  "\u25811965": 672,
  "\u25811966": 673,
  "\u25811967": 674,
  "\u25811968": 675,
  "\u25811969": 676,
  "\u25811970": 677,
  "\u25811970,": 678,
  "\u25811971": 679,
  "\u25811972": 680,
  "\u25811973": 681,
  "\u25811974": 682,
  "\u25811975": 683,
  "\u25811976": 684,
  "\u25811977": 685,
  "\u25811978": 686,
  "\u25811979": 688,
  "\u25811980": 690,
  "\u25811980,": 691,
  "\u25811981": 692,
  "\u25811982": 693,
  "\u25811983": 694,
  "\u25811984": 696,
  "\u25811985": 697,
  "\u25811986": 699,
  "\u25811987": 701,
  "\u25811988": 702,
  "\u25811989": 704,
  "\u25811989,": 705,
  "\u25811990": 707,
  "\u25811990,": 708,
  "\u25811991": 710,
  "\u25811991,": 711,
  "\u25811992": 713,
  "\u25811993": 715,
  "\u25811994": 717,
  "\u25811994,": 718,
  "\u25811995": 720,
  "\u25811995,": 721,
  "\u25811996": 723,
  "\u25811996,": 725,
  "\u25811997": 727,
  "\u25811997,": 729,
  "\u25811998": 731,
  "\u25811998,": 732,
  "\u25811999": 735,
  "\u25811999,": 737,
  "\u25811:": 287,
  "\u25811:1": 365,
  "\u25812": 748,
  "\u25812%": 760,
  "\u25812)": 759,
  "\u25812,": 756,
  "\u25812,0": 781,
  "\u25812,000": 795,
  "\u25812,3": 966,
  "\u25812,4": 980,
  "\u25812,5": 999,
  "\u25812,500": 1011,
  "\u25812-": 755,
  "\u25812-3": 965,
  "\u25812.": 758,
  "\u25812.0": 782,
  "\u25812.000": 796,
  "\u25812.1": 936,
  "\u25812.2": 949,
  "\u25812.3": 967,
  "\u25812.4": 981,
  "\u25812.5": 1000,
  "\u25812.500": 1012,
  "\u25812.6": 1020,
  "\u25812.7": 1029,
  "\u25812.8": 1039,
  "\u258120": 778,
  "\u258120%": 784,
  "\u258120,000": 801,
  "\u258120-": 783,
  "\u258120.000": 802,
  "\u2581200": 788,
  "\u2581200,000": 804,
  "\u2581200.000": 805,
  "\u25812000": 793,
  "\u25812000,": 797,
  "\u25812000.": 798,
  "\u25812001": 808,
  "\u25812001,": 810,
  "\u25812002": 813,
  "\u25812002,": 815,
  "\u25812002/": 816,
  "\u25812003": 819,
  "\u25812003,": 821,
  "\u25812003/": 822,
  "\u25812004": 825,
  "\u25812004,": 827,
  "\u25812004.": 828,
  "\u25812005": 831,
  "\u25812005,": 833,
  "\u25812005.": 834,
  "\u25812006": 837,
  "\u25812006,": 839,
  "\u25812006.": 840,
  "\u25812007": 843,
  "\u25812007,": 845,
  "\u25812007.": 846,
  "\u25812008": 849,
  "\u25812008,": 851,
  "\u25812008.": 852,
  "\u25812009": 855,
  "\u25812009,": 857,
  "\u25812009.": 858,
  "\u25812010": 861,
  "\u25812010,": 863,
  "\u25812010.": 864,
  "\u25812011": 867,
  "\u25812011,": 869,
  "\u25812011.": 870,
  "\u25812012": 873,
  "\u25812012,": 875,
  "\u25812012.": 876,
  "\u25812013": 879,
  "\u25812013,": 881,
  "\u25812013.": 882,
  "\u25812014": 885,
  "\u25812014,": 887,
  "\u25812014.": 888,
  "\u25812015": 891,
  "\u25812015,": 893,
  "\u25812015.": 894,
  "\u25812016": 897,
  "\u25812016,": 899,
  "\u25812016.": 900,
  "\u25812016/2017": 901,
  "\u25812017": 904,
  "\u25812017\"": 909,
  "\u25812017,": 906,
  "\u25812017.": 908,
  "\u25812017:": 907,
  "\u25812018": 913,
  "\u25812018,": 914,
  "\u25812018.": 915,
  "\u25812019": 918,
  "\u25812019,": 919,
  "\u25812019.": 920,
  "\u25812019/2020": 921,
  "\u25812020": 923,
  "\u25812020,": 924,
  "\u25812020.": 925,
  "\u25812021": 926,
  "\u25812022": 927,
  "\u25812025": 928,
  "\u25812030": 929,
  "\u25812050": 930,
  "\u258121": 934,
  "\u258121%": 938,
  "\u258121,": 937,
  "\u2581210": 942,
  "\u258122": 948,
  "\u258122%": 952,
  "\u258122,": 950,
  "\u2581220": 956,
  "\u2581225": 958,
  "\u258122:": 951,
  "\u258123": 963,
  "\u258123%": 969,
  "\u258123,": 968,
  "\u2581230": 972,
  "\u258124": 979,
  "\u258124%": 984,
  "\u258124,": 983,
  "\u258124-": 982,
  "\u258124/7": 991,
  "\u2581240": 988,
  "\u258125": 996,
  "\u258125%": 1002,
  "\u258125,": 1001,
  "\u258125,000": 1013,
  "\u2581250": 1007,
  "\u2581250,000": 1014,
  "\u25812500": 1010,
  "\u2581256": 1015,
  "\u258126": 1019,
  "\u258126,": 1021,
  "\u258127": 1028,
  "\u258127,": 1030,
  "\u2581270": 1033,
  "\u258128": 1038,
  "\u258128,": 1040,
  "\u2581280": 1043,
  "\u258129": 1048,
  "\u258129,": 1049,
  "\u25812:": 757,
  "\u25812:1": 935,
  "\u25813": 1060,
  "\u25813%": 1072,
  "\u25813)": 1070,
  "\u25813*": 1071,
  "\u25813,000": 1101,
  "\u25813,5": 1153,
  "\u25813,500": 1161,
  "\u25813-": 1067,
  "\u25813-4": 1144,
  "\u25813-5": 1152,
  "\u25813.": 1069,
  "\u25813.0": 1089,
  "\u25813.000": 1102,
  "\u25813.1": 1116,
  "\u25813.2": 1125,
  "\u25813.3": 1135,
  "\u25813.4": 1145,
  "\u25813.5": 1154,
  "\u25813.500": 1162,
  "\u25813.6": 1167,
  "\u258130": 1085,
  "\u258130%": 1091,
  "\u258130,000": 1105,
  "\u258130-": 1090,
  "\u258130.000": 1106,
  "\u2581300": 1095,
  "\u2581300,000": 1108,
  "\u2581300.000": 1109,
  "\u25813000": 1100,
  "\u2581304": 1110,
  "\u258131": 1114,
  "\u258131,": 1117,
  "\u2581316": 1121,
  "\u258132": 1124,
  "\u258132-": 1126,
  "\u2581320": 1131,
  "\u258133": 1134,
  "\u258133%": 1136,
  "\u258134": 1143,
  "\u258135": 1151,
  "\u258135%": 1155,
  "\u2581350": 1160,
  "\u258136": 1166,
  "\u2581360": 1171,
  "\u2581365": 1173,
  "\u258137": 1176,
  "\u258138": 1183,
  "\u2581380": 1186,
  "\u258139": 1190,
  "\u25813:": 1068,
  "\u25813:1": 1115,
  "\u25814": 1202,
  "\u25814%": 1214,
  "\u25814)": 1212,
  "\u25814*": 1213,
  "\u25814,": 1209,
  "\u25814,000": 1236,
  "\u25814,5": 1274,
  "\u25814-": 1208,
  "\u25814-11": 1253,
  "\u25814-6": 1284,
  "\u25814-7": 1290,
  "\u25814.": 1211,
  "\u25814.0": 1229,
  "\u25814.000": 1237,
  "\u25814.1": 1249,
  "\u25814.2": 1259,
  "\u25814.3": 1264,
  "\u25814.4": 1269,
  "\u25814.5": 1275,
  "\u25814.6": 1285,
  "\u25814.7": 1291,
  "\u25814.8": 1298,
  "\u25814.9": 1304,
  "\u258140": 1227,
  "\u258140%": 1230,
  "\u258140,000": 1240,
  "\u258140.000": 1241,
  "\u2581400": 1233,
  "\u2581400,000": 1243,
  "\u25814000": 1235,
  "\u2581404": 1244,
  "\u258141": 1247,
  "\u258141%": 1250,
  "\u258142": 1258,
  "\u258143": 1263,
  "\u258144": 1268,
  "\u258145": 1273,
  "\u258145%": 1276,
  "\u2581450": 1280,
  "\u258146": 1283,
  "\u258147": 1289,
  "\u258148": 1297,
  "\u258149": 1303,
  "\u25814:": 1210,
  "\u25814:1": 1248,
  "\u25815": 1315,
  "\u25815%": 1327,
  "\u25815)": 1325,
  "\u25815*": 1326,
  "\u25815,": 1322,
  "\u25815,000": 1354,
  "\u25815,5": 1389,
  "\u25815-": 1321,
  "\u25815.": 1324,
  "\u25815.0": 1340,
  "\u25815.000": 1355,
  "\u25815.1": 1368,
  "\u25815.1.1": 1370,
  "\u25815.2": 1374,
  "\u25815.2.2": 1376,
  "\u25815.3": 1380,
  "\u25815.5": 1390,
  "\u258150": 1338,
  "\u258150%": 1341,
  "\u258150,000": 1358,
  "\u258150.000": 1359,
  "\u2581500": 1347,
  "\u2581500,000": 1362,
  "\u2581500.000": 1363,
  "\u25815000": 1353,
  "\u258151": 1366,
  "\u258152": 1373,
  "\u258153": 1379,
  "\u258154": 1384,
  "\u258155": 1388,
  "\u258155%": 1391,
  "\u2581550": 1394,
  "\u258156": 1397,
  "\u258157": 1402,
  "\u258158": 1406,
  "\u258159": 1409,
  "\u25815:": 1323,
  "\u25815:1": 1367,
  "\u25816": 1419,
  "\u25816%": 1430,
  "\u25816)": 1429,
  "\u25816,": 1426,
  "\u25816,000": 1451,
  "\u25816-": 1425,
  "\u25816.": 1428,
  "\u25816.0": 1442,
  "\u25816.1": 1460,
  "\u25816.2": 1467,
  "\u25816.3": 1472,
  "\u25816.5": 1480,
  "\u258160": 1440,
  "\u258160%": 1443,
  "\u258160,000": 1454,
  "\u258160.000": 1455,
  "\u2581600": 1446,
  "\u2581600,000": 1457,
  "\u25816000": 1450,
  "\u258161": 1459,
  "\u258161%": 1461,
  "\u258162": 1466,
  "\u258163": 1471,
  "\u258164": 1475,
  "\u258165": 1479,
  "\u258165%": 1481,
  "\u2581650": 1484,
  "\u258166": 1486,
  "\u258167": 1491,
  "\u258168": 1496,
  "\u258169": 1501,
  "\u25816:": 1427,
  "\u25816:00": 1447,
  "\u25817": 1510,
  "\u25817%": 1520,
  "\u25817,": 1517,
  "\u25817,000": 1535,
  "\u25817-11": 1547,
  "\u25817-14": 1548,
  "\u25817.": 1519,
  "\u25817.1": 1544,
  "\u25817.2": 1552,
  "\u25817.5": 1564,
  "\u258170": 1529,
  "\u258170%": 1530,
  "\u258170.000": 1538,
  "\u2581700": 1533,
  "\u2581700,000": 1540,
  "\u258171": 1542,
  "\u258171%": 1545,
  "\u258172": 1551,
  "\u258172%": 1553,
  "\u2581728": 1554,
  "\u258173": 1556,
  "\u2581737": 1558,
  "\u258174": 1560,
  "\u258175": 1563,
  "\u258175%": 1565,
  "\u2581750": 1571,
  "\u258176": 1573,
  "\u258177": 1578,
  "\u258178": 1582,
  "\u258179": 1586,
  "\u25817:": 1518,
  "\u25817:00": 1534,
  "\u25817:1": 1543,
  "\u25818": 1593,
  "\u25818%": 1602,
  "\u25818,": 1599,
  "\u25818,000": 1618,
  "\u25818.": 1601,
  "\u25818.0": 1612,
  "\u25818.1": 1625,
  "\u25818.5": 1640,
  "\u258180": 1611,
  "\u258180%": 1613,
  "\u2581800": 1615,
  "\u2581802.11": 1622,
  "\u258181": 1624,
  "\u258181%": 1626,
  "\u258182": 1629,
  "\u258183": 1632,
  "\u258184": 1636,
  "\u258185": 1639,
  "\u258185%": 1641,
  "\u2581850": 1644,
  "\u258186": 1646,
  "\u258187": 1650,
  "\u258188": 1654,
  "\u258189": 1659,
  "\u25818:": 1600,
  "\u25818:00": 1616,
  "\u25819": 1670,
  "\u25819,": 1675,
  "\u25819.": 1677,
  "\u25819/11": 1709,
  "\u258190": 1688,
  "\u258190%": 1689,
  "\u2581900": 1693,
  "\u25819001": 1701,
  "\u258191": 1704,
  "\u258191%": 1705,
  "\u2581911": 1708,
  "\u258192": 1712,
  "\u258192-77-": 1714,
  "\u258193": 1717,
  "\u258194": 1720,
  "\u258194%": 1721,
  "\u258195": 1724,
  "\u258195%": 1725,
  "\u258196": 1731,
  "\u258197": 1737,
  "\u258198": 1741,
  "\u258198%": 1742,
  "\u258199": 1747,
  "\u258199%": 1748,
  "\u25819:": 1676,
  "\u25819:00": 1694,
  "\u2581>": 99,
  "\u2581>>": 100,
  "\u2581A": 1757,
  "\u2581AA": 1768,
  "\u2581AAA": 1769,
  "\u2581AB": 1777,
  "\u2581ABB": 1807,
  "\u2581ABC": 1816,
  "\u2581ABOUT": 1903,
  "\u2581ABS": 1950,
  "\u2581AC": 2012,
  "\u2581ACC": 2054,
  "\u2581ACCOR": 2117,
  "\u2581ACP": 2367,
  "\u2581ACT": 2421,
  "\u2581AD": 2522,
  "\u2581ADHD": 2613,
  "\u2581ADN": 2731,
  "\u2581ADOPT": 2751,
  "\u2581ADV": 2831,
  "\u2581AF": 2944,
  "\u2581AFP": 3031,
  "\u2581AFRICA": 3035,
  "\u2581AG": 3063,
  "\u2581AGORA": 3148,
  "\u2581AI": 3244,
  "\u2581AIDS": 3253,
  "\u2581AK": 3329,
  "\u2581AL": 3345,
  "\u2581ALL": 3592,
  "\u2581ALMA": 3639,
  "\u2581ALWAYS": 3781,
  "\u2581AM": 3788,
  "\u2581AMD": 3882,
  "\u2581AMERICA": 3915,
  "\u2581AMOR": 3980,
  "\u2581AN": 4029,
  "\u2581AND": 4135,
  "\u2581ANEXO": 4186,
  "\u2581ANGELES": 4203,
  "\u2581ANNEX": 4280,
  "\u2581ANY": 4487,
  "\u2581AP": 4513,
  "\u2581API": 4598,
  "\u2581APK": 4600,
  "\u2581APP": 4699,
  "\u2581AR": 4967,
  "\u2581ARE": 5061,
  "\u2581ARM": 5142,
  "\u2581ARTICLE": 5320,
  "\u2581ARTIGO": 5345,
  "\u2581AS": 5379,
  "\u2581ASAP": 5383,
  "\u2581ASTM": 5664,
  "\u2581ASUS": 5695,
  "\u2581AT": 5703,
  "\u2581ATEN": 5734,
  "\u2581ATM": 5835,
  "\u2581ATP": 5866,
  "\u2581AU": 6007,
  "\u2581AUD": 6012,
  "\u2581AUTHORISATION": 6113,
  "\u2581AUTO": 6136,
  "\u2581AUTORIZA": 6209,
  "\u2581AV": 6235,
  "\u2581AVC": 6286,
  "\u2581AVI": 6314,
  "\u2581AWS": 6374,
  "\u2581Aarhus": 1770,
  "\u2581Aaron": 1771,
  "\u2581Ab": 1775,
  "\u2581Aba": 1780,
  "\u2581Ababa": 1781,
  "\u2581Abaixo": 1787,
  "\u2581Abandon": 1790,
  "\u2581Abbas": 1809,
  "\u2581Abbey": 1811,
  "\u2581Abbott": 1812,
  "\u2581Abby": 1815,
  "\u2581Abd": 1817,
  "\u2581Abdel": 1818,
  "\u2581Abdul": 1828,
  "\u2581Abdullah": 1829,
  "\u2581Abe": 1831,
  "\u2581Abel": 1832,
  "\u2581Aberdeen": 1841,
  "\u2581Aberta": 1844,
  "\u2581Aberto": 1848,
  "\u2581Abertura": 1852,
  "\u2581Abi": 1854,
  "\u2581Abidjan": 1857,
  "\u2581Abigail": 1858,
  "\u2581Ability": 1865,
  "\u2581Abortion": 1897,
  "\u2581About": 1902,
  "\u2581Above": 1905,
  "\u2581Abr": 1906,
  "\u2581Abra": 1908,
  "\u2581Abraham": 1913,
  "\u2581Abram": 1914,
  "\u2581Abra\u00e3o": 1909,
  "\u2581Abre": 1930,
  "\u2581Abril": 1938,
  "\u2581Abrir": 1942,
  "\u2581Abroad": 1946,
  "\u2581Absolut": 1955,
  "\u2581Absolutamente": 1958,
  "\u2581Absolute": 1960,
  "\u2581Absolutely": 1962,
  "\u2581Abstract": 1982,
  "\u2581Abu": 1990,
  "\u2581Abuse": 1999,
  "\u2581Ac": 2010,
  "\u2581Acabei": 2025,
  "\u2581Acabou": 2027,
  "\u2581Academia": 2029,
  "\u2581Academic": 2031,
  "\u2581Academy": 2040,
  "\u2581Acad\u00eamico": 2037,
  "\u2581Acampamento": 2044,
  "\u2581Acapulco": 2048,
  "\u2581Acc": 2053,
  "\u2581Accelerate": 2059,
  "\u2581Accelerator": 2064,
  "\u2581Accenture": 2066,
  "\u2581Accept": 2069,
  "\u2581Access": 2078,
  "\u2581Accessibility": 2081,
  "\u2581Accessible": 2083,
  "\u2581Accession": 2086,
  "\u2581Accessories": 2088,
  "\u2581Accident": 2091,
  "\u2581Accommodatie": 2101,
  "\u2581Accommodation": 2104,
  "\u2581Accommodations": 2106,
  "\u2581AccorHotels": 2127,
  "\u2581Accord": 2119,
  "\u2581According": 2124,
  "\u2581Accordingly": 2126,
  "\u2581Account": 2130,
  "\u2581Accounting": 2136,
  "\u2581Accra": 2138,
  "\u2581Accreditation": 2140,
  "\u2581Accu": 2143,
  "\u2581Accurate": 2150,
  "\u2581Ace": 2159,
  "\u2581Aceita": 2165,
  "\u2581Aceite": 2176,
  "\u2581Aceito": 2178,
  "\u2581Acelera": 2182,
  "\u2581Acer": 2196,
  "\u2581Acesse": 2207,
  "\u2581Acessibilidade": 2209,
  "\u2581Acesso": 2214,
  "\u2581Acess\u00edvel": 2212,
  "\u2581Acess\u00f3rios": 2217,
  "\u2581Ach": 2221,
  "\u2581Acha": 2223,
  "\u2581Achas": 2231,
  "\u2581Achei": 2235,
  "\u2581Achieve": 2240,
  "\u2581Achievement": 2243,
  "\u2581Achilles": 2246,
  "\u2581Acho": 2249,
  "\u2581Acid": 2255,
  "\u2581Acidente": 2260,
  "\u2581Acima": 2273,
  "\u2581Acknowledge": 2279,
  "\u2581Acomoda": 2303,
  "\u2581Acomoda\u00e7\u00e3o": 2305,
  "\u2581Acomoda\u00e7\u00f5es": 2307,
  "\u2581Acompanha": 2310,
  "\u2581Acompanhamento": 2317,
  "\u2581Acompanhante": 2320,
  "\u2581Acompanhe": 2323,
  "\u2581Acontece": 2334,
  "\u2581Aconteceu": 2343,
  "\u2581Acorda": 2351,
  "\u2581Acordo": 2359,
  "\u2581Acoustic": 2366,
  "\u2581Acquire": 2371,
  "\u2581Acquisition": 2376,
  "\u2581Acre": 2379,
  "\u2581Acredita": 2382,
  "\u2581Acreditamos": 2387,
  "\u2581Acredite": 2393,
  "\u2581Acredito": 2396,
  "\u2581Acresce": 2399,
  "\u2581Acrescenta": 2401,
  "\u2581Acrobat": 2409,
  "\u2581Acropolis": 2411,
  "\u2581Acros": 2412,
  "\u2581Acrylic": 2415,
  "\u2581Act": 2419,
  "\u2581Action": 2427,
  "\u2581Activ": 2431,
  "\u2581Activate": 2436,
  "\u2581Activation": 2441,
  "\u2581Active": 2444,
  "\u2581Actividades": 2449,
  "\u2581Activision": 2450,
  "\u2581Activities": 2455,
  "\u2581Activity": 2458,
  "\u2581Actor": 2464,
  "\u2581Actress": 2468,
  "\u2581Acts": 2471,
  "\u2581Actual": 2476,
  "\u2581Actualizado": 2481,
  "\u2581Actually": 2484,
  "\u2581Actualmente": 2486,
  "\u2581Acupuncture": 2502,
  "\u2581Acute": 2515,
  "\u2581Ac\u00e7\u00e3o": 2056,
  "\u2581Ad": 2520,
  "\u2581AdSense": 2815,
  "\u2581AdWords": 2910,
  "\u2581Adam": 2525,
  "\u2581Adams": 2526,
  "\u2581Adapt": 2530,
  "\u2581Adapta": 2532,
  "\u2581Adaptador": 2541,
  "\u2581Adaptation": 2545,
  "\u2581Adapter": 2549,
  "\u2581Add": 2556,
  "\u2581Added": 2559,
  "\u2581Addiction": 2563,
  "\u2581Adding": 2566,
  "\u2581Addis": 2567,
  "\u2581Additional": 2570,
  "\u2581Additionally": 2572,
  "\u2581Address": 2577,
  "\u2581Adelaide": 2587,
  "\u2581Adele": 2588,
  "\u2581Ademais": 2589,
  "\u2581Adequado": 2599,
  "\u2581Ades\u00e3o": 2608,
  "\u2581Adeus": 2612,
  "\u2581Adhesive": 2620,
  "\u2581Adiciona": 2632,
  "\u2581Adicionado": 2637,
  "\u2581Adicionalmente": 2642,
  "\u2581Adicionar": 2645,
  "\u2581Adicione": 2647,
  "\u2581Adjust": 2666,
  "\u2581Adjustable": 2668,
  "\u2581Adjustment": 2672,
  "\u2581Admin": 2676,
  "\u2581Administra": 2681,
  "\u2581Administrador": 2688,
  "\u2581Administration": 2693,
  "\u2581Administrative": 2697,
  "\u2581Administrativo": 2699,
  "\u2581Administrator": 2702,
  "\u2581Administra\u00e7\u00e3o": 2683,
  "\u2581Admiral": 2708,
  "\u2581Admission": 2718,
  "\u2581Adobe": 2734,
  "\u2581Adolescent": 2741,
  "\u2581Adolescente": 2743,
  "\u2581Adolf": 2746,
  "\u2581Adopt": 2750,
  "\u2581Adopted": 2758,
  "\u2581Adoption": 2761,
  "\u2581Adop\u00e7\u00e3o": 2748,
  "\u2581Adorei": 2779,
  "\u2581Adoro": 2786,
  "\u2581Adota": 2790,
  "\u2581Adquir": 2798,
  "\u2581Adrian": 2811,
  "\u2581Adriatic": 2812,
  "\u2581Ads": 2814,
  "\u2581Aduaneira": 2817,
  "\u2581Adult": 2821,
  "\u2581Adultos": 2828,
  "\u2581Adults": 2830,
  "\u2581Advance": 2833,
  "\u2581Advanced": 2836,
  "\u2581Advantage": 2841,
  "\u2581Advantages": 2844,
  "\u2581Advent": 2846,
  "\u2581Adventist": 2847,
  "\u2581Adventista": 2849,
  "\u2581Adventure": 2852,
  "\u2581Advert": 2869,
  "\u2581Advertisement": 2876,
  "\u2581Advertising": 2881,
  "\u2581Advice": 2884,
  "\u2581Adviser": 2889,
  "\u2581Advisor": 2893,
  "\u2581Advisory": 2896,
  "\u2581Advocate": 2900,
  "\u2581Advogado": 2906,
  "\u2581Advogados": 2908,
  "\u2581Ad\u00e3o": 2527,
  "\u2581Aegean": 2913,
  "\u2581Aerial": 2921,
  "\u2581Aero": 2922,
  "\u2581Aeroporto": 2934,
  "\u2581Aeroportos": 2936,
  "\u2581Aerospace": 2939,
  "\u2581Af": 2942,
  "\u2581Afasta": 2946,
  "\u2581Afaste": 2951,
  "\u2581Afeganist\u00e3o": 2957,
  "\u2581Affairs": 2973,
  "\u2581Affect": 2976,
  "\u2581Affiliate": 2984,
  "\u2581Affordable": 3000,
  "\u2581Afghan": 3002,
  "\u2581Afghanistan": 3003,
  "\u2581Afiliado": 3009,
  "\u2581Afinal": 3012,
  "\u2581Afonso": 3029,
  "\u2581Africa": 3034,
  "\u2581African": 3038,
  "\u2581Africana": 3041,
  "\u2581Africano": 3044,
  "\u2581Afro": 3047,
  "\u2581After": 3051,
  "\u2581Afterwards": 3056,
  "\u2581Ag": 3061,
  "\u2581Aga": 3065,
  "\u2581Again": 3067,
  "\u2581Against": 3070,
  "\u2581Age": 3074,
  "\u2581Agencies": 3087,
  "\u2581Agency": 3089,
  "\u2581Agenda": 3091,
  "\u2581Agent": 3097,
  "\u2581Agente": 3099,
  "\u2581Ages": 3104,
  "\u2581Agile": 3119,
  "\u2581Agnes": 3137,
  "\u2581Agoda": 3140,
  "\u2581Agora": 3147,
  "\u2581Agostinho": 3149,
  "\u2581Agosto": 3151,
  "\u2581Agra": 3152,
  "\u2581Agradec": 3158,
  "\u2581Agradecemos": 3160,
  "\u2581Agrade\u00e7o": 3166,
  "\u2581Agree": 3175,
  "\u2581Agreement": 3179,
  "\u2581Agri": 3193,
  "\u2581Agricultura": 3201,
  "\u2581Agricultural": 3203,
  "\u2581Agriculture": 3205,
  "\u2581Agro": 3207,
  "\u2581Agr\u00edcola": 3196,
  "\u2581Agua": 3213,
  "\u2581Aguardamos": 3218,
  "\u2581Aguarde": 3222,
  "\u2581Agust": 3230,
  "\u2581Ag\u00eancia": 3084,
  "\u2581Ah": 3233,
  "\u2581Ahmad": 3236,
  "\u2581Ahmadinejad": 3237,
  "\u2581Ahmed": 3238,
  "\u2581Ahmedabad": 3239,
  "\u2581Ai": 3242,
  "\u2581Aid": 3250,
  "\u2581Aim": 3256,
  "\u2581Ainda": 3265,
  "\u2581Air": 3269,
  "\u2581Airbnb": 3272,
  "\u2581Airbus": 3274,
  "\u2581Aircraft": 3276,
  "\u2581Aires": 3278,
  "\u2581Airfare": 3280,
  "\u2581Airline": 3282,
  "\u2581Airlines": 3284,
  "\u2581Airplane": 3286,
  "\u2581Airport": 3288,
  "\u2581Airports": 3290,
  "\u2581Airways": 3294,
  "\u2581Ajuda": 3303,
  "\u2581Ajude": 3313,
  "\u2581Ajuste": 3324,
  "\u2581Ak": 3327,
  "\u2581Aki": 3335,
  "\u2581Al": 3343,
  "\u2581Ala": 3348,
  "\u2581Alabama": 3349,
  "\u2581Alamo": 3350,
  "\u2581Alan": 3351,
  "\u2581Alarm": 3358,
  "\u2581Alarme": 3361,
  "\u2581Alasca": 3363,
  "\u2581Alaska": 3364,
  "\u2581Alba": 3367,
  "\u2581Albania": 3368,
  "\u2581Albanian": 3370,
  "\u2581Albany": 3371,
  "\u2581Albergo": 3373,
  "\u2581Albergue": 3375,
  "\u2581Albergues": 3377,
  "\u2581Albert": 3378,
  "\u2581Alberta": 3379,
  "\u2581Alberto": 3380,
  "\u2581Albi": 3381,
  "\u2581Albufeira": 3382,
  "\u2581Album": 3384,
  "\u2581Albuquerque": 3390,
  "\u2581Alb\u00e2nia": 3369,
  "\u2581Alc": 3391,
  "\u2581Alca": 3392,
  "\u2581Alcatel": 3405,
  "\u2581Alco": 3406,
  "\u2581Alcohol": 3408,
  "\u2581Alcor\u00e3o": 3417,
  "\u2581Aldeia": 3420,
  "\u2581Ale": 3425,
  "\u2581Alegre": 3440,
  "\u2581Alegria": 3442,
  "\u2581Alejandro": 3444,
  "\u2581Alemanha": 3453,
  "\u2581Alem\u00e3": 3450,
  "\u2581Alem\u00e3o": 3455,
  "\u2581Alentejo": 3457,
  "\u2581Aleppo": 3458,
  "\u2581Alert": 3465,
  "\u2581Alerta": 3467,
  "\u2581Alessandro": 3473,
  "\u2581Alex": 3474,
  "\u2581Alexa": 3475,
  "\u2581Alexander": 3476,
  "\u2581Alexandra": 3477,
  "\u2581Alexandre": 3478,
  "\u2581Alexandria": 3479,
  "\u2581Alexis": 3480,
  "\u2581Alfa": 3482,
  "\u2581Alfonso": 3487,
  "\u2581Alfred": 3488,
  "\u2581Algarve": 3490,
  "\u2581Algeria": 3493,
  "\u2581Algerian": 3494,
  "\u2581Algiers": 3495,
  "\u2581Algo": 3498,
  "\u2581Algorithm": 3501,
  "\u2581Algum": 3509,
  "\u2581Alguma": 3511,
  "\u2581Algumas": 3515,
  "\u2581Alguns": 3518,
  "\u2581Algu\u00e9m": 3507,
  "\u2581Ali": 3526,
  "\u2581Aliados": 3532,
  "\u2581Alian\u00e7a": 3534,
  "\u2581Alibaba": 3538,
  "\u2581Alicante": 3539,
  "\u2581Alice": 3540,
  "\u2581Alicia": 3542,
  "\u2581Alien": 3545,
  "\u2581Alimentar": 3564,
  "\u2581Alimenta\u00e7\u00e3o": 3558,
  "\u2581Alimentos": 3570,
  "\u2581Alison": 3578,
  "\u2581Alitalia": 3579,
  "\u2581Ali\u00e1s": 3537,
  "\u2581All": 3590,
  "\u2581Allah": 3594,
  "\u2581Allen": 3602,
  "\u2581Allende": 3603,
  "\u2581Alliance": 3612,
  "\u2581Allied": 3615,
  "\u2581Allies": 3617,
  "\u2581Allison": 3618,
  "\u2581Allow": 3626,
  "\u2581Allowed": 3629,
  "\u2581Alloy": 3633,
  "\u2581Alma": 3638,
  "\u2581Almeida": 3641,
  "\u2581Almighty": 3643,
  "\u2581Almirante": 3644,
  "\u2581Almost": 3653,
  "\u2581Almo\u00e7o": 3648,
  "\u2581Aloe": 3657,
  "\u2581Alojamento": 3660,
  "\u2581Alojamentos": 3662,
  "\u2581Alone": 3665,
  "\u2581Along": 3667,
  "\u2581Alonso": 3670,
  "\u2581Alpes": 3673,
  "\u2581Alpha": 3675,
  "\u2581Alphabet": 3677,
  "\u2581Alpine": 3679,
  "\u2581Alps": 3680,
  "\u2581Already": 3682,
  "\u2581Alright": 3684,
  "\u2581Alsace": 3686,
  "\u2581Also": 3690,
  "\u2581Alt": 3691,
  "\u2581Alta": 3694,
  "\u2581Alter": 3700,
  "\u2581Alterar": 3712,
  "\u2581Altera\u00e7\u00e3o": 3703,
  "\u2581Altera\u00e7\u00f5es": 3705,
  "\u2581Alternate": 3723,
  "\u2581Alternativa": 3726,
  "\u2581Alternative": 3729,
  "\u2581Alternatively": 3730,
  "\u2581Alteza": 3735,
  "\u2581Although": 3739,
  "\u2581Alto": 3744,
  "\u2581Altura": 3749,
  "\u2581Alt\u00edssimo": 3740,
  "\u2581Alugue": 3755,
  "\u2581Aluguel": 3757,
  "\u2581Aluguer": 3759,
  "\u2581Aluminium": 3763,
  "\u2581Aluminum": 3765,
  "\u2581Alum\u00ednio": 3761,
  "\u2581Alunos": 3770,
  "\u2581Alves": 3774,
  "\u2581Always": 3780,
  "\u2581Alzheimer": 3782,
  "\u2581Al\u00e9m": 3448,
  "\u2581Am": 3786,
  "\u2581Ama": 3792,
  "\u2581Amadeus": 3795,
  "\u2581Amador": 3798,
  "\u2581Amalfi": 3804,
  "\u2581Amanda": 3810,
  "\u2581Amanh\u00e3": 3812,
  "\u2581Amar": 3818,
  "\u2581Amarelo": 3821,
  "\u2581Amarillas": 3825,
  "\u2581Amateur": 3829,
  "\u2581Amazing": 3834,
  "\u2581Amazon": 3836,
  "\u2581Amazonas": 3837,
  "\u2581Amaz\u00f4nia": 3838,
  "\u2581Ambas": 3842,
  "\u2581Ambassador": 3844,
  "\u2581Amber": 3845,
  "\u2581Ambi": 3847,
  "\u2581Ambient": 3855,
  "\u2581Ambientais": 3858,
  "\u2581Ambiental": 3860,
  "\u2581Ambiente": 3864,
  "\u2581Ambos": 3875,
  "\u2581Ambrose": 3876,
  "\u2581Amea\u00e7a": 3886,
  "\u2581Amelia": 3896,
  "\u2581Amen": 3897,
[...]
